{
  "version": "1.0",
  "truncation": null,
  "padding": null,
  "added_tokens": [
    {
      "id": 3,
      "content": "[SEP]",
      "single_word": false,
      "lstrip": false,
      "rstrip": false,
      "normalized": false,
      "special": true
    },
    {
      "id": 4,
      "content": "[EOD]",
      "single_word": false,
      "lstrip": false,
      "rstrip": false,
      "normalized": false,
      "special": true
    },
    {
      "id": 5,
      "content": "[CLS]",
      "single_word": false,
      "lstrip": false,
      "rstrip": false,
      "normalized": false,
      "special": true
    },
    {
      "id": 6,
      "content": "[PAD]",
      "single_word": false,
      "lstrip": false,
      "rstrip": false,
      "normalized": false,
      "special": true
    },
    {
      "id": 7,
      "content": "[BOM]",
      "single_word": false,
      "lstrip": false,
      "rstrip": false,
      "normalized": false,
      "special": true
    },
    {
      "id": 8,
      "content": "[BOS]",
      "single_word": false,
      "lstrip": false,
      "rstrip": false,
      "normalized": false,
      "special": true
    },
    {
      "id": 9,
      "content": "[EOS]",
      "single_word": false,
      "lstrip": false,
      "rstrip": false,
      "normalized": false,
      "special": true
    },
    {
      "id": 10,
      "content": "[BOP]",
      "single_word": false,
      "lstrip": false,
      "rstrip": false,
      "normalized": false,
      "special": true
    },
    {
      "id": 11,
      "content": "[EOP]",
      "single_word": false,
      "lstrip": false,
      "rstrip": false,
      "normalized": false,
      "special": true
    },
    {
      "id": 12,
      "content": "[LAT]",
      "single_word": false,
      "lstrip": false,
      "rstrip": false,
      "normalized": false,
      "special": true
    },
    {
      "id": 13,
      "content": "[URL]",
      "single_word": false,
      "lstrip": false,
      "rstrip": false,
      "normalized": false,
      "special": true
    },
    {
      "id": 14,
      "content": "[KRK]",
      "single_word": false,
      "lstrip": false,
      "rstrip": false,
      "normalized": false,
      "special": true
    },
    {
      "id": 15,
      "content": "[NUM]",
      "single_word": false,
      "lstrip": false,
      "rstrip": false,
      "normalized": false,
      "special": true
    },
    {
      "id": 16,
      "content": "[UNK]",
      "single_word": false,
      "lstrip": false,
      "rstrip": false,
      "normalized": false,
      "special": true
    },
    {
      "id": 17,
      "content": "۰",
      "single_word": false,
      "lstrip": false,
      "rstrip": false,
      "normalized": false,
      "special": true
    },
    {
      "id": 18,
      "content": "۱",
      "single_word": false,
      "lstrip": false,
      "rstrip": false,
      "normalized": false,
      "special": true
    },
    {
      "id": 19,
      "content": "۲",
      "single_word": false,
      "lstrip": false,
      "rstrip": false,
      "normalized": false,
      "special": true
    },
    {
      "id": 20,
      "content": "۳",
      "single_word": false,
      "lstrip": false,
      "rstrip": false,
      "normalized": false,
      "special": true
    },
    {
      "id": 21,
      "content": "۴",
      "single_word": false,
      "lstrip": false,
      "rstrip": false,
      "normalized": false,
      "special": true
    },
    {
      "id": 22,
      "content": "۵",
      "single_word": false,
      "lstrip": false,
      "rstrip": false,
      "normalized": false,
      "special": true
    },
    {
      "id": 23,
      "content": "۶",
      "single_word": false,
      "lstrip": false,
      "rstrip": false,
      "normalized": false,
      "special": true
    },
    {
      "id": 24,
      "content": "۷",
      "single_word": false,
      "lstrip": false,
      "rstrip": false,
      "normalized": false,
      "special": true
    },
    {
      "id": 25,
      "content": "۸",
      "single_word": false,
      "lstrip": false,
      "rstrip": false,
      "normalized": false,
      "special": true
    },
    {
      "id": 26,
      "content": "۹",
      "single_word": false,
      "lstrip": false,
      "rstrip": false,
      "normalized": false,
      "special": true
    },
    {
      "id": 28,
      "content": "[EOL]",
      "single_word": false,
      "lstrip": false,
      "rstrip": false,
      "normalized": false,
      "special": true
    },
    {
      "id": 25000,
      "content": "[MSK]",
      "single_word": false,
      "lstrip": true,
      "rstrip": false,
      "normalized": false,
      "special": true
    }
  ],
  "normalizer": {
    "type": "Sequence",
    "normalizers": [
      {
        "type": "Replace",
        "pattern": {
          "String": "``"
        },
        "content": "\""
      },
      {
        "type": "Replace",
        "pattern": {
          "String": "''"
        },
        "content": "\""
      }
    ]
  },
  "pre_tokenizer": {
    "type": "Sequence",
    "pretokenizers": [
      {
        "type": "WhitespaceSplit"
      },
      {
        "type": "Metaspace",
        "replacement": "▁",
        "prepend_scheme": "always",
        "split": true
      }
    ]
  },
  "post_processor": {
    "type": "TemplateProcessing",
    "single": [
      {
        "SpecialToken": {
          "id": "[CLS]",
          "type_id": 0
        }
      },
      {
        "Sequence": {
          "id": "A",
          "type_id": 0
        }
      },
      {
        "SpecialToken": {
          "id": "[SEP]",
          "type_id": 0
        }
      }
    ],
    "pair": [
      {
        "SpecialToken": {
          "id": "[CLS]",
          "type_id": 0
        }
      },
      {
        "Sequence": {
          "id": "A",
          "type_id": 0
        }
      },
      {
        "SpecialToken": {
          "id": "[SEP]",
          "type_id": 0
        }
      },
      {
        "Sequence": {
          "id": "B",
          "type_id": 1
        }
      },
      {
        "SpecialToken": {
          "id": "[SEP]",
          "type_id": 1
        }
      }
    ],
    "special_tokens": {
      "[CLS]": {
        "id": "[CLS]",
        "ids": [
          5
        ],
        "tokens": [
          "[CLS]"
        ]
      },
      "[SEP]": {
        "id": "[SEP]",
        "ids": [
          3
        ],
        "tokens": [
          "[SEP]"
        ]
      }
    }
  },
  "decoder": {
    "type": "Metaspace",
    "replacement": "▁",
    "prepend_scheme": "always",
    "split": true
  },
  "model": {
    "type": "Unigram",
    "unk_id": 0,
    "vocab": [
      [
        "<unk>",
        0.0
      ],
      [
        "<s>",
        0.0
      ],
      [
        "</s>",
        0.0
      ],
      [
        "[SEP]",
        0.0
      ],
      [
        "[EOD]",
        0.0
      ],
      [
        "[CLS]",
        0.0
      ],
      [
        "[PAD]",
        0.0
      ],
      [
        "[BOM]",
        0.0
      ],
      [
        "[BOS]",
        0.0
      ],
      [
        "[EOS]",
        0.0
      ],
      [
        "[BOP]",
        0.0
      ],
      [
        "[EOP]",
        0.0
      ],
      [
        "[LAT]",
        0.0
      ],
      [
        "[URL]",
        0.0
      ],
      [
        "[KRK]",
        0.0
      ],
      [
        "[NUM]",
        0.0
      ],
      [
        "[UNK]",
        0.0
      ],
      [
        "۰",
        0.0
      ],
      [
        "۱",
        0.0
      ],
      [
        "۲",
        0.0
      ],
      [
        "۳",
        0.0
      ],
      [
        "۴",
        0.0
      ],
      [
        "۵",
        0.0
      ],
      [
        "۶",
        0.0
      ],
      [
        "۷",
        0.0
      ],
      [
        "۸",
        0.0
      ],
      [
        "۹",
        0.0
      ],
      [
        "[MASK]",
        0.0
      ],
      [
        "[EOL]",
        0.0
      ],
      [
        "[RES3]",
        0.0
      ],
      [
        "[RES4]",
        0.0
      ],
      [
        "[RES5]",
        0.0
      ],
      [
        "[RES6]",
        0.0
      ],
      [
        "[RES7]",
        0.0
      ],
      [
        "[RES8]",
        0.0
      ],
      [
        "[RES9]",
        0.0
      ],
      [
        "[RES10]",
        0.0
      ],
      [
        "[RES11]",
        0.0
      ],
      [
        "[RES12]",
        0.0
      ],
      [
        "[RES13]",
        0.0
      ],
      [
        "[RES14]",
        0.0
      ],
      [
        "[RES15]",
        0.0
      ],
      [
        "[RES16]",
        0.0
      ],
      [
        "▁",
        -2.6079962253570557
      ],
      [
        "‌",
        -3.266328811645508
      ],
      [
        "▁و",
        -3.413757562637329
      ],
      [
        "▁در",
        -3.6954169273376465
      ],
      [
        "▁.",
        -3.833662986755371
      ],
      [
        "▁به",
        -3.856033563613891
      ],
      [
        "▁،",
        -3.9018867015838623
      ],
      [
        "▁از",
        -4.005857467651367
      ],
      [
        "▁که",
        -4.176398754119873
      ],
      [
        "▁می",
        -4.350567817687988
      ],
      [
        "▁را",
        -4.446700572967529
      ],
      [
        "▁این",
        -4.458917617797852
      ],
      [
        "▁است",
        -4.588628768920898
      ],
      [
        "ی",
        -4.651762962341309
      ],
      [
        "▁با",
        -4.733808517456055
      ],
      [
        "های",
        -4.812201499938965
      ],
      [
        "▁:",
        -5.243209362030029
      ],
      [
        "ها",
        -5.2448577880859375
      ],
      [
        "▁آن",
        -5.314429759979248
      ],
      [
        "▁برای",
        -5.49560022354126
      ],
      [
        "▁یک",
        -5.575654983520508
      ],
      [
        "▁بر",
        -5.624677658081055
      ],
      [
        "ای",
        -5.752114295959473
      ],
      [
        "▁شده",
        -5.75322151184082
      ],
      [
        "▁خود",
        -5.776831150054932
      ],
      [
        "▁)",
        -5.79599142074585
      ],
      [
        "▁(",
        -5.812581539154053
      ],
      [
        "َ",
        -5.819799900054932
      ],
      [
        "▁بود",
        -5.833244323730469
      ],
      [
        "▁تا",
        -5.836413860321045
      ],
      [
        "م",
        -5.8892669677734375
      ],
      [
        "▁شد",
        -5.905268669128418
      ],
      [
        "▁کرد",
        -5.913519859313965
      ],
      [
        "▁او",
        -6.00606107711792
      ],
      [
        "▁-",
        -6.006091594696045
      ],
      [
        "▁من",
        -6.016329288482666
      ],
      [
        "▁سال",
        -6.018621444702148
      ],
      [
        "▁تو",
        -6.035465240478516
      ],
      [
        "ن",
        -6.050210475921631
      ],
      [
        "ه",
        -6.063565731048584
      ],
      [
        "▁هم",
        -6.095175743103027
      ],
      [
        "▁«",
        -6.1232523918151855
      ],
      [
        "▁»",
        -6.1232523918151855
      ],
      [
        "ِ",
        -6.141265392303467
      ],
      [
        "شود",
        -6.199817180633545
      ],
      [
        "▁ایران",
        -6.247433185577393
      ],
      [
        "▁ما",
        -6.274697303771973
      ],
      [
        "▁هر",
        -6.280899524688721
      ],
      [
        "ش",
        -6.291565895080566
      ],
      [
        "ت",
        -6.3147196769714355
      ],
      [
        "▁دارد",
        -6.339380264282227
      ],
      [
        "▁گفت",
        -6.346208095550537
      ],
      [
        "▁نیز",
        -6.355552673339844
      ],
      [
        "▁یا",
        -6.397218227386475
      ],
      [
        "▁کشور",
        -6.479642391204834
      ],
      [
        "▁دو",
        -6.481815338134766
      ],
      [
        "▁کرده",
        -6.489961624145508
      ],
      [
        "▁اما",
        -6.536580562591553
      ],
      [
        "▁وی",
        -6.588434219360352
      ],
      [
        "اند",
        -6.593192100524902
      ],
      [
        "▁بی",
        -6.625024318695068
      ],
      [
        "▁قرار",
        -6.625093460083008
      ],
      [
        "▁ز",
        -6.6431427001953125
      ],
      [
        "▁کار",
        -6.669632911682129
      ],
      [
        "▁نمی",
        -6.671851634979248
      ],
      [
        "کند",
        -6.676664352416992
      ],
      [
        "▁…",
        -6.689398288726807
      ],
      [
        "▁روز",
        -6.710549831390381
      ],
      [
        "▁باید",
        -6.713907718658447
      ],
      [
        "▁دیگر",
        -6.7249674797058105
      ],
      [
        "▁اگر",
        -6.738254547119141
      ],
      [
        "▁دست",
        -6.7526726722717285
      ],
      [
        "▁؟",
        -6.763549327850342
      ],
      [
        "▁چه",
        -6.767369747161865
      ],
      [
        "▁باشد",
        -6.783864974975586
      ],
      [
        "ُ",
        -6.7945356369018555
      ],
      [
        "▁پس",
        -6.79738187789917
      ],
      [
        "▁همه",
        -6.8129963874816895
      ],
      [
        "▁نیست",
        -6.831460475921631
      ],
      [
        "▁یکی",
        -6.84227180480957
      ],
      [
        "ان",
        -6.863748550415039
      ],
      [
        "▁کند",
        -6.871465682983398
      ],
      [
        "▁مورد",
        -6.886096000671387
      ],
      [
        "▁پیش",
        -6.902665138244629
      ],
      [
        "▁روی",
        -6.93970251083374
      ],
      [
        "▁دل",
        -6.943487644195557
      ],
      [
        "▁چون",
        -6.943665981292725
      ],
      [
        "ْ",
        -6.959836483001709
      ],
      [
        "است",
        -6.960180759429932
      ],
      [
        "ا",
        -6.970527648925781
      ],
      [
        "▁سر",
        -6.980490684509277
      ],
      [
        "▁مردم",
        -6.980498790740967
      ],
      [
        "▁شود",
        -6.988600730895996
      ],
      [
        "▁بین",
        -7.016260623931885
      ],
      [
        "▁خواهد",
        -7.027106285095215
      ],
      [
        "▁؛",
        -7.036142349243164
      ],
      [
        "ٔ",
        -7.037275314331055
      ],
      [
        "▁دولت",
        -7.043100833892822
      ],
      [
        "▁آنها",
        -7.043242931365967
      ],
      [
        "▁نام",
        -7.0704827308654785
      ],
      [
        "▁عنوان",
        -7.081215858459473
      ],
      [
        "▁داد",
        -7.08469820022583
      ],
      [
        "▁وجود",
        -7.090087413787842
      ],
      [
        "▁آمریکا",
        -7.0937418937683105
      ],
      [
        "▁صورت",
        -7.103677749633789
      ],
      [
        "تر",
        -7.104009628295898
      ],
      [
        "▁نظر",
        -7.1116719245910645
      ],
      [
        "▁شهر",
        -7.123782634735107
      ],
      [
        "و",
        -7.126934051513672
      ],
      [
        "▁استفاده",
        -7.128507137298584
      ],
      [
        "▁!",
        -7.129055500030518
      ],
      [
        "▁تهران",
        -7.148951530456543
      ],
      [
        "▁حال",
        -7.1689133644104
      ],
      [
        "▁هستند",
        -7.169229030609131
      ],
      [
        "ست",
        -7.17526912689209
      ],
      [
        "▁داشت",
        -7.179080009460449
      ],
      [
        "▁گزارش",
        -7.194032669067383
      ],
      [
        "▁شرکت",
        -7.196145534515381
      ],
      [
        "▁نه",
        -7.201441764831543
      ],
      [
        "▁اسلامی",
        -7.204377174377441
      ],
      [
        "▁بوده",
        -7.211361885070801
      ],
      [
        "▁شما",
        -7.21697998046875
      ],
      [
        "▁داشته",
        -7.217448711395264
      ],
      [
        "▁/",
        -7.22276496887207
      ],
      [
        "▁راه",
        -7.223034858703613
      ],
      [
        "▁انجام",
        -7.226267337799072
      ],
      [
        "کنند",
        -7.230572700500488
      ],
      [
        "ر",
        -7.231703281402588
      ],
      [
        "▁تیم",
        -7.23465633392334
      ],
      [
        "ّ",
        -7.275015354156494
      ],
      [
        "ل",
        -7.279284477233887
      ],
      [
        "▁بخش",
        -7.281918048858643
      ],
      [
        "▁ماه",
        -7.283463001251221
      ],
      [
        "▁جهان",
        -7.303520202636719
      ],
      [
        "▁سازمان",
        -7.308413028717041
      ],
      [
        "▁برنامه",
        -7.308608531951904
      ],
      [
        "▁بازی",
        -7.310105323791504
      ],
      [
        "▁داده",
        -7.315760135650635
      ],
      [
        "▁آب",
        -7.325321197509766
      ],
      [
        "▁ملی",
        -7.346410751342773
      ],
      [
        "▁هزار",
        -7.346463203430176
      ],
      [
        "▁رئیس",
        -7.349532127380371
      ],
      [
        "ام",
        -7.352694511413574
      ],
      [
        "▁بعد",
        -7.391312122344971
      ],
      [
        "▁زمان",
        -7.39180850982666
      ],
      [
        "▁کنند",
        -7.394186973571777
      ],
      [
        "▁نفر",
        -7.395369529724121
      ],
      [
        "▁گروه",
        -7.40742826461792
      ],
      [
        "▁اعلام",
        -7.412737846374512
      ],
      [
        "▁هیچ",
        -7.413616180419922
      ],
      [
        "▁همچنین",
        -7.414798259735107
      ],
      [
        "▁ادامه",
        -7.417420864105225
      ],
      [
        "▁اینکه",
        -7.420315265655518
      ],
      [
        "▁فیلم",
        -7.424237251281738
      ],
      [
        "▁چند",
        -7.424378871917725
      ],
      [
        "ک",
        -7.427454471588135
      ],
      [
        "▁سه",
        -7.430908679962158
      ],
      [
        "▁همین",
        -7.43697452545166
      ],
      [
        "▁بسیار",
        -7.439866065979004
      ],
      [
        "ترین",
        -7.470367908477783
      ],
      [
        "▁دارند",
        -7.493149757385254
      ],
      [
        "▁چو",
        -7.498169422149658
      ],
      [
        "▁گرفته",
        -7.500091075897217
      ],
      [
        "▁بیشتر",
        -7.511241912841797
      ],
      [
        "▁میان",
        -7.519767761230469
      ],
      [
        "د",
        -7.522668361663818
      ],
      [
        "▁جان",
        -7.523823738098144
      ],
      [
        "▁واقع",
        -7.527649402618408
      ],
      [
        "▁جمهوری",
        -7.527847766876221
      ],
      [
        "▁بار",
        -7.538998603820801
      ],
      [
        "▁ای",
        -7.539481163024902
      ],
      [
        "▁گذشته",
        -7.540105819702148
      ],
      [
        "▁کردن",
        -7.541587352752685
      ],
      [
        "دهد",
        -7.559357166290283
      ],
      [
        "▁تنها",
        -7.560915946960449
      ],
      [
        "▁زندگی",
        -7.564670562744141
      ],
      [
        "▁منطقه",
        -7.566597938537598
      ],
      [
        "▁دانشگاه",
        -7.568215847015381
      ],
      [
        "▁باز",
        -7.572734832763672
      ],
      [
        "▁توجه",
        -7.574920177459717
      ],
      [
        "▁کنید",
        -7.577219486236572
      ],
      [
        "▁سوی",
        -7.577250003814697
      ],
      [
        "▁برخی",
        -7.580398559570312
      ],
      [
        "▁حضور",
        -7.587080478668213
      ],
      [
        "تواند",
        -7.593800067901611
      ],
      [
        "▁مجلس",
        -7.5946173667907715
      ],
      [
        "▁استان",
        -7.598613262176514
      ],
      [
        "▁شدن",
        -7.599865913391113
      ],
      [
        "▁کردند",
        -7.60166072845459
      ],
      [
        "▁اشاره",
        -7.602116584777832
      ],
      [
        "▁نشان",
        -7.602288722991943
      ],
      [
        "▁توسط",
        -7.613425254821777
      ],
      [
        "▁گل",
        -7.618707656860352
      ],
      [
        "▁ولی",
        -7.62060022354126
      ],
      [
        "▁زیر",
        -7.621529579162598
      ],
      [
        "▁عشق",
        -7.637598037719727
      ],
      [
        "▁رو",
        -7.637969493865967
      ],
      [
        "▁علی",
        -7.644858360290527
      ],
      [
        "▁اول",
        -7.6545796394348145
      ],
      [
        "▁شب",
        -7.654766082763672
      ],
      [
        "توان",
        -7.65800666809082
      ],
      [
        "▁ب",
        -7.671268463134766
      ],
      [
        "▁امروز",
        -7.685324668884277
      ],
      [
        "▁چشم",
        -7.691452980041504
      ],
      [
        "▁افزایش",
        -7.693263053894043
      ],
      [
        "▁چنین",
        -7.696813106536865
      ],
      [
        "▁دلیل",
        -7.708566665649414
      ],
      [
        "▁طرح",
        -7.712047576904297
      ],
      [
        "▁گفته",
        -7.716941356658936
      ],
      [
        "▁پر",
        -7.717422962188721
      ],
      [
        "▁خانه",
        -7.726812362670898
      ],
      [
        "▁تمام",
        -7.733696937561035
      ],
      [
        "▁جدید",
        -7.738667488098144
      ],
      [
        "ند",
        -7.747195243835449
      ],
      [
        "▁بیش",
        -7.748179912567139
      ],
      [
        "٫",
        -7.755363941192627
      ],
      [
        "▁بودند",
        -7.757005214691162
      ],
      [
        "▁سیاسی",
        -7.758572101593018
      ],
      [
        "▁افزود",
        -7.761087417602539
      ],
      [
        "▁بزرگ",
        -7.774707794189453
      ],
      [
        "▁ایجاد",
        -7.774991989135742
      ],
      [
        "▁درصد",
        -7.79959774017334
      ],
      [
        "▁تولید",
        -7.813128471374512
      ],
      [
        "▁وزیر",
        -7.81376838684082
      ],
      [
        "▁گرفت",
        -7.814634799957275
      ],
      [
        "▁تاریخ",
        -7.815785884857178
      ],
      [
        "▁کسی",
        -7.817646026611328
      ],
      [
        "▁حتی",
        -7.824111938476563
      ],
      [
        "▁افراد",
        -7.833323478698731
      ],
      [
        "▁میلیون",
        -7.834768772125244
      ],
      [
        "ب",
        -7.835695266723633
      ],
      [
        "▁دوره",
        -7.835921287536621
      ],
      [
        "شان",
        -7.836728572845459
      ],
      [
        "▁درباره",
        -7.844595432281494
      ],
      [
        "هایی",
        -7.849142551422119
      ],
      [
        "▁ال",
        -7.849480152130127
      ],
      [
        "▁زمین",
        -7.8495354652404785
      ],
      [
        "▁پایان",
        -7.849536418914795
      ],
      [
        "▁,",
        -7.852926254272461
      ],
      [
        "▁نسبت",
        -7.853648662567139
      ],
      [
        "▁شورای",
        -7.85921049118042
      ],
      [
        "باشد",
        -7.865386962890625
      ],
      [
        "▁مرا",
        -7.866086483001709
      ],
      [
        "▁ندارد",
        -7.869494915008545
      ],
      [
        "شوند",
        -7.874958038330078
      ],
      [
        "▁چرا",
        -7.877166271209717
      ],
      [
        "▁قیمت",
        -7.879875659942627
      ],
      [
        "َّ",
        -7.880558013916016
      ],
      [
        "▁همان",
        -7.887735366821289
      ],
      [
        "▁جامعه",
        -7.889551639556885
      ],
      [
        "▁زبان",
        -7.898894786834717
      ],
      [
        "▁جمله",
        -7.900949001312256
      ],
      [
        "▁امام",
        -7.903553485870361
      ],
      [
        "▁قانون",
        -7.905359745025635
      ],
      [
        "▁همراه",
        -7.908297061920166
      ],
      [
        "▁آقای",
        -7.909502506256104
      ],
      [
        "▁آغاز",
        -7.912226676940918
      ],
      [
        "▁کتاب",
        -7.912860870361328
      ],
      [
        "▁زمینه",
        -7.91722297668457
      ],
      [
        "س",
        -7.918599128723144
      ],
      [
        "▁جنگ",
        -7.921936511993408
      ],
      [
        "ین",
        -7.9219865798950195
      ],
      [
        "▁جای",
        -7.922646999359131
      ],
      [
        "▁اقتصادی",
        -7.936163902282715
      ],
      [
        "▁کم",
        -7.94173526763916
      ],
      [
        "▁عراق",
        -7.945803165435791
      ],
      [
        "▁بدون",
        -7.946492195129395
      ],
      [
        "▁فوتبال",
        -7.946897506713867
      ],
      [
        "▁آمد",
        -7.947227954864502
      ],
      [
        "▁خبر",
        -7.948638439178467
      ],
      [
        "▁#",
        -7.9499831199646
      ],
      [
        "▁دور",
        -7.954375743865967
      ],
      [
        "▁انقلاب",
        -7.957439422607422
      ],
      [
        "▁فعالیت",
        -7.957789421081543
      ],
      [
        "▁نقش",
        -7.965297222137451
      ],
      [
        "▁وزارت",
        -7.968031406402588
      ],
      [
        "▁شدند",
        -7.970030307769775
      ],
      [
        "▁بسیاری",
        -7.97418212890625
      ],
      [
        "▁غیر",
        -7.981074810028076
      ],
      [
        "▁بیان",
        -7.981617450714111
      ],
      [
        "▁تن",
        -7.98257303237915
      ],
      [
        "▁ثبت",
        -7.987295627593994
      ],
      [
        "▁ساعت",
        -7.990833759307861
      ],
      [
        "▁دوم",
        -7.99388313293457
      ],
      [
        "▁اجتماعی",
        -7.993959903717041
      ],
      [
        "▁مختلف",
        -7.996124267578125
      ],
      [
        "▁انتخابات",
        -7.996638774871826
      ],
      [
        "▁کاهش",
        -7.998886108398437
      ],
      [
        "▁جهانی",
        -8.000041961669922
      ],
      [
        "▁شهرستان",
        -8.001151084899902
      ],
      [
        "▁حق",
        -8.001733779907227
      ],
      [
        "▁وارد",
        -8.018645286560059
      ],
      [
        "▁کن",
        -8.018750190734863
      ],
      [
        "▁موضوع",
        -8.019365310668945
      ],
      [
        "▁خدا",
        -8.020572662353516
      ],
      [
        "▁پیدا",
        -8.02105712890625
      ],
      [
        "▁ایشان",
        -8.022482872009277
      ],
      [
        "گوید",
        -8.02384090423584
      ],
      [
        "▁بررسی",
        -8.024277687072754
      ],
      [
        "▁وقتی",
        -8.03184986114502
      ],
      [
        "▁توسعه",
        -8.048660278320312
      ],
      [
        "▁یعنی",
        -8.049675941467285
      ],
      [
        "▁کل",
        -8.049878120422363
      ],
      [
        "▁اصلی",
        -8.054841041564941
      ],
      [
        "▁کمک",
        -8.055048942565918
      ],
      [
        "▁اثر",
        -8.058440208435059
      ],
      [
        "▁قبل",
        -8.06429672241211
      ],
      [
        "▁پی",
        -8.072578430175781
      ],
      [
        "ات",
        -8.085298538208008
      ],
      [
        "اش",
        -8.08548355102539
      ],
      [
        "گر",
        -8.08591365814209
      ],
      [
        "▁البته",
        -8.087145805358887
      ],
      [
        "▁ع",
        -8.08786678314209
      ],
      [
        "▁هفته",
        -8.09317684173584
      ],
      [
        "▁دنیا",
        -8.098122596740723
      ],
      [
        "▁مانند",
        -8.101667404174805
      ],
      [
        "▁دیده",
        -8.10283374786377
      ],
      [
        "▁فرهنگی",
        -8.10680103302002
      ],
      [
        "▁دیگری",
        -8.107516288757324
      ],
      [
        "▁جمعیت",
        -8.112820625305176
      ],
      [
        "▁محمد",
        -8.115615844726562
      ],
      [
        "▁مهم",
        -8.129693984985352
      ],
      [
        "▁کنیم",
        -8.130126953125
      ],
      [
        "▁عمل",
        -8.131580352783203
      ],
      [
        "▁کنار",
        -8.134700775146484
      ],
      [
        "▁حدود",
        -8.135746002197266
      ],
      [
        "▁دیدار",
        -8.138599395751953
      ],
      [
        "▁تلاش",
        -8.1394624710083
      ],
      [
        "▁آینده",
        -8.140685081481934
      ],
      [
        "▁خون",
        -8.142407417297363
      ],
      [
        "▁عمومی",
        -8.144932746887207
      ],
      [
        "▁علیه",
        -8.145366668701172
      ],
      [
        "▁باشگاه",
        -8.147697448730469
      ],
      [
        "▁ارائه",
        -8.14928913116455
      ],
      [
        "▁سطح",
        -8.15047836303711
      ],
      [
        "▁نظام",
        -8.150984764099121
      ],
      [
        "▁نیاز",
        -8.151440620422363
      ],
      [
        "▁زیادی",
        -8.154237747192383
      ],
      [
        "▁خانواده",
        -8.15444564819336
      ],
      [
        "▁باعث",
        -8.154802322387695
      ],
      [
        "▁برگزار",
        -8.154831886291504
      ],
      [
        "▁آمده",
        -8.158031463623047
      ],
      [
        "▁آموزش",
        -8.158943176269531
      ],
      [
        "▁مرکز",
        -8.16038990020752
      ],
      [
        "▁هنوز",
        -8.160512924194336
      ],
      [
        "▁یاد",
        -8.163623809814453
      ],
      [
        "▁آتش",
        -8.163752555847168
      ],
      [
        "▁جهت",
        -8.165020942687988
      ],
      [
        "▁انتخاب",
        -8.165203094482422
      ],
      [
        "▁قابل",
        -8.168159484863281
      ],
      [
        "▁گونه",
        -8.171382904052734
      ],
      [
        "▁تومان",
        -8.175060272216797
      ],
      [
        "شد",
        -8.179759979248047
      ],
      [
        "▁هایی",
        -8.180266380310059
      ],
      [
        "▁ساخت",
        -8.187289237976074
      ],
      [
        "▁امور",
        -8.18880844116211
      ],
      [
        "رود",
        -8.190167427062988
      ],
      [
        "▁نتیجه",
        -8.192255020141602
      ],
      [
        "▁شرایط",
        -8.194300651550293
      ],
      [
        "▁کشورهای",
        -8.194625854492188
      ],
      [
        "▁فقط",
        -8.19526195526123
      ],
      [
        "▁بازار",
        -8.195783615112305
      ],
      [
        "▁خویش",
        -8.195812225341797
      ],
      [
        "▁مثل",
        -8.199309349060059
      ],
      [
        "▁ممکن",
        -8.199936866760254
      ],
      [
        "▁اساس",
        -8.204450607299805
      ],
      [
        "▁برابر",
        -8.207355499267578
      ],
      [
        "▁طول",
        -8.209970474243164
      ],
      [
        "▁طی",
        -8.211187362670898
      ],
      [
        "▁حاضر",
        -8.211243629455566
      ],
      [
        "▁باشند",
        -8.212037086486816
      ],
      [
        "▁طور",
        -8.213346481323242
      ],
      [
        "▁دوست",
        -8.217961311340332
      ],
      [
        "▁خاک",
        -8.218910217285156
      ],
      [
        "▁مربوط",
        -8.220315933227539
      ],
      [
        "▁آثار",
        -8.222787857055664
      ],
      [
        "▁زن",
        -8.222835540771484
      ],
      [
        "▁الله",
        -8.226099967956543
      ],
      [
        "▁ویژه",
        -8.22751235961914
      ],
      [
        "▁دارای",
        -8.232502937316895
      ],
      [
        "▁خواب",
        -8.233872413635254
      ],
      [
        "▁تغییر",
        -8.235676765441895
      ],
      [
        "▁شکل",
        -8.23615837097168
      ],
      [
        "▁اطلاعات",
        -8.23635196685791
      ],
      [
        "▁انسان",
        -8.252869606018066
      ],
      [
        "▁مرد",
        -8.255916595458984
      ],
      [
        "▁سفر",
        -8.257270812988281
      ],
      [
        "یم",
        -8.257498741149902
      ],
      [
        "ون",
        -8.259294509887695
      ],
      [
        "▁رفت",
        -8.263314247131348
      ],
      [
        "▁اظهار",
        -8.26346492767334
      ],
      [
        "▁رسید",
        -8.264765739440918
      ],
      [
        "▁تشکیل",
        -8.265493392944336
      ],
      [
        "▁هست",
        -8.265669822692871
      ],
      [
        "▁زمانی",
        -8.266763687133789
      ],
      [
        "▁رنگ",
        -8.267731666564941
      ],
      [
        "▁سیستم",
        -8.267911911010742
      ],
      [
        "▁جز",
        -8.26944351196289
      ],
      [
        "کرد",
        -8.274174690246582
      ],
      [
        "▁مدت",
        -8.275412559509277
      ],
      [
        "▁اولین",
        -8.27596664428711
      ],
      [
        "▁سرمایه",
        -8.280375480651855
      ],
      [
        "▁اهل",
        -8.281525611877441
      ],
      [
        "▁وقت",
        -8.28174877166748
      ],
      [
        "رسد",
        -8.282516479492188
      ],
      [
        "▁بودن",
        -8.287866592407227
      ],
      [
        "▁میزان",
        -8.287920951843262
      ],
      [
        "▁طریق",
        -8.289523124694824
      ],
      [
        "▁آنان",
        -8.289668083190918
      ],
      [
        "▁تاکید",
        -8.291814804077148
      ],
      [
        "▁شبکه",
        -8.294693946838379
      ],
      [
        "▁خاطر",
        -8.29493236541748
      ],
      [
        "▁پاسخ",
        -8.298874855041504
      ],
      [
        "▁بالا",
        -8.300027847290039
      ],
      [
        "▁فکر",
        -8.312125205993652
      ],
      [
        "▁روزنامه",
        -8.312422752380371
      ],
      [
        "گیرد",
        -8.314581871032715
      ],
      [
        "▁آزاد",
        -8.314979553222656
      ],
      [
        "▁دلار",
        -8.31551742553711
      ],
      [
        "▁لازم",
        -8.316884994506836
      ],
      [
        "▁ایرانی",
        -8.317146301269531
      ],
      [
        "▁غم",
        -8.3187837600708
      ],
      [
        "▁نبود",
        -8.320133209228516
      ],
      [
        "▁نیروهای",
        -8.323211669921875
      ],
      [
        "▁سخن",
        -8.325610160827637
      ],
      [
        "▁حمایت",
        -8.32614517211914
      ],
      [
        "▁قدرت",
        -8.333861351013184
      ],
      [
        "▁تحت",
        -8.337410926818848
      ],
      [
        "▁دستگاه",
        -8.341747283935547
      ],
      [
        "▁کامل",
        -8.342781066894531
      ],
      [
        "▁تعداد",
        -8.342830657958984
      ],
      [
        "▁دریافت",
        -8.343111038208008
      ],
      [
        "▁خوب",
        -8.346353530883789
      ],
      [
        "▁باد",
        -8.348723411560059
      ],
      [
        "▁دهد",
        -8.349409103393555
      ],
      [
        "ق",
        -8.350103378295898
      ],
      [
        "▁مقام",
        -8.350396156311035
      ],
      [
        "▁دوران",
        -8.350666046142578
      ],
      [
        "▁نوع",
        -8.351170539855957
      ],
      [
        "ع",
        -8.3511962890625
      ],
      [
        "▁هدف",
        -8.351816177368164
      ],
      [
        "▁رسیده",
        -8.35251522064209
      ],
      [
        "▁اسلام",
        -8.352773666381836
      ],
      [
        "▁نفت",
        -8.353575706481934
      ],
      [
        "▁آیا",
        -8.355463027954102
      ],
      [
        "▁میلادی",
        -8.356502532958984
      ],
      [
        "▁حالی",
        -8.359284400939941
      ],
      [
        "▁جریان",
        -8.36069393157959
      ],
      [
        "▁شاه",
        -8.361756324768066
      ],
      [
        "▁اکنون",
        -8.362895965576172
      ],
      [
        "▁نامه",
        -8.36579418182373
      ],
      [
        "▁فرهنگ",
        -8.365803718566895
      ],
      [
        "▁ساخته",
        -8.36716365814209
      ],
      [
        "▁شاید",
        -8.367539405822754
      ],
      [
        "▁دکتر",
        -8.368804931640625
      ],
      [
        "▁یافت",
        -8.371525764465332
      ],
      [
        "▁مصرف",
        -8.371990203857422
      ],
      [
        "▁دنبال",
        -8.37470531463623
      ],
      [
        "▁نزدیک",
        -8.377398490905762
      ],
      [
        "▁اجرای",
        -8.377828598022461
      ],
      [
        "▁حوزه",
        -8.378055572509766
      ],
      [
        "▁علمی",
        -8.379911422729492
      ],
      [
        "که",
        -8.381580352783203
      ],
      [
        "▁خط",
        -8.382608413696289
      ],
      [
        "▁خارجی",
        -8.383576393127441
      ],
      [
        "▁رشته",
        -8.384833335876465
      ],
      [
        "ز",
        -8.385156631469727
      ],
      [
        "آید",
        -8.389507293701172
      ],
      [
        "▁زنان",
        -8.38969898223877
      ],
      [
        "▁چهار",
        -8.391767501831055
      ],
      [
        "▁خیلی",
        -8.39236068725586
      ],
      [
        "▁مرکزی",
        -8.39311408996582
      ],
      [
        "▁حقوق",
        -8.393170356750488
      ],
      [
        "▁جام",
        -8.39499282836914
      ],
      [
        "▁اقدام",
        -8.395487785339355
      ],
      [
        "▁اخیر",
        -8.396533966064453
      ],
      [
        "ف",
        -8.398441314697266
      ],
      [
        "▁سیاست",
        -8.39879035949707
      ],
      [
        "▁منتشر",
        -8.401585578918457
      ],
      [
        "▁ا",
        -8.402584075927734
      ],
      [
        "▁نگاه",
        -8.407505989074707
      ],
      [
        "▁پرداخت",
        -8.40816593170166
      ],
      [
        "▁مهر",
        -8.408609390258789
      ],
      [
        "▁مجموعه",
        -8.411172866821289
      ],
      [
        "▁مشکلات",
        -8.411626815795898
      ],
      [
        "▁جا",
        -8.412282943725586
      ],
      [
        "▁محل",
        -8.41325569152832
      ],
      [
        "▁جوان",
        -8.413405418395996
      ],
      [
        "▁نور",
        -8.413801193237305
      ],
      [
        "▁دارم",
        -8.414305686950684
      ],
      [
        "▁مواد",
        -8.417478561401367
      ],
      [
        "▁اندر",
        -8.424488067626953
      ],
      [
        "▁گر",
        -8.427123069763184
      ],
      [
        "▁جمع",
        -8.43010425567627
      ],
      [
        "▁نقل",
        -8.430262565612793
      ],
      [
        "توانند",
        -8.431377410888672
      ],
      [
        "▁هزینه",
        -8.431422233581543
      ],
      [
        "▁بهره",
        -8.432997703552246
      ],
      [
        "▁روش",
        -8.433547019958496
      ],
      [
        "▁کس",
        -8.437840461730957
      ],
      [
        "▁شماره",
        -8.448080062866211
      ],
      [
        "▁خارج",
        -8.450180053710938
      ],
      [
        "▁خصوص",
        -8.451393127441406
      ],
      [
        "▁پای",
        -8.452333450317383
      ],
      [
        "▁بن",
        -8.452930450439453
      ],
      [
        "▁مقابل",
        -8.457634925842285
      ],
      [
        "▁مرگ",
        -8.458686828613281
      ],
      [
        "ایم",
        -8.459800720214844
      ],
      [
        "▁حمله",
        -8.460853576660156
      ],
      [
        "▁مطرح",
        -8.463032722473145
      ],
      [
        "▁مدیریت",
        -8.463117599487305
      ],
      [
        "▁تصمیم",
        -8.464399337768555
      ],
      [
        "▁خوبی",
        -8.467058181762695
      ],
      [
        "▁مشکل",
        -8.467570304870605
      ],
      [
        "▁چین",
        -8.469602584838867
      ],
      [
        "▁بانک",
        -8.470545768737793
      ],
      [
        "▁خوش",
        -8.470650672912598
      ],
      [
        "دهند",
        -8.474603652954102
      ],
      [
        "▁طرف",
        -8.47665023803711
      ],
      [
        "▁درد",
        -8.48198413848877
      ],
      [
        "▁آنچه",
        -8.484492301940918
      ],
      [
        "▁همیشه",
        -8.485272407531738
      ],
      [
        "▁همکاری",
        -8.486051559448242
      ],
      [
        "▁کنم",
        -8.486581802368164
      ],
      [
        "▁حرکت",
        -8.49155330657959
      ],
      [
        "▁میلیارد",
        -8.496368408203125
      ],
      [
        "▁شامل",
        -8.496641159057617
      ],
      [
        "▁فروش",
        -8.4967041015625
      ],
      [
        "▁حضرت",
        -8.501380920410156
      ],
      [
        "▁دانش",
        -8.502486228942871
      ],
      [
        "▁ره",
        -8.502959251403809
      ],
      [
        "▁بلکه",
        -8.505187034606934
      ],
      [
        "▁استقلال",
        -8.505975723266602
      ],
      [
        "▁پشت",
        -8.506454467773438
      ],
      [
        "▁بهترین",
        -8.511385917663574
      ],
      [
        "▁چیزی",
        -8.51298999786377
      ],
      [
        "کنم",
        -8.513556480407715
      ],
      [
        "▁متحده",
        -8.514071464538574
      ],
      [
        "▁فصل",
        -8.515012741088867
      ],
      [
        "▁بد",
        -8.5167818069458
      ],
      [
        "▁بیماری",
        -8.51900863647461
      ],
      [
        "▁امر",
        -8.519396781921387
      ],
      [
        "▁رشد",
        -8.520251274108887
      ],
      [
        "▁دین",
        -8.522092819213867
      ],
      [
        "▁کاری",
        -8.526552200317383
      ],
      [
        "▁ایالات",
        -8.532033920288086
      ],
      [
        "▁بحث",
        -8.53256607055664
      ],
      [
        "▁م",
        -8.53555965423584
      ],
      [
        "▁رسانه",
        -8.535636901855469
      ],
      [
        "▁کسب",
        -8.536434173583984
      ],
      [
        "▁نوشته",
        -8.536966323852539
      ],
      [
        "▁حزب",
        -8.538546562194824
      ],
      [
        "▁خبرنگار",
        -8.540131568908691
      ],
      [
        "▁حسین",
        -8.540533065795898
      ],
      [
        "▁اعضای",
        -8.54274845123291
      ],
      [
        "▁عضو",
        -8.543222427368164
      ],
      [
        "▁امنیت",
        -8.544020652770996
      ],
      [
        "▁نظامی",
        -8.545387268066406
      ],
      [
        "▁عدم",
        -8.54681396484375
      ],
      [
        "▁روسیه",
        -8.547796249389648
      ],
      [
        "▁فرانسه",
        -8.549467086791992
      ],
      [
        "▁موجود",
        -8.553357124328613
      ],
      [
        "▁آنکه",
        -8.55518627166748
      ],
      [
        "▁صد",
        -8.556974411010742
      ],
      [
        "▁کی",
        -8.56031322479248
      ],
      [
        "▁ریاست",
        -8.56244945526123
      ],
      [
        "▁روابط",
        -8.565656661987305
      ],
      [
        "▁نمایش",
        -8.5668363571167
      ],
      [
        "▁حرف",
        -8.56893539428711
      ],
      [
        "▁دلم",
        -8.57275676727295
      ],
      [
        "▁بسته",
        -8.574905395507812
      ],
      [
        "▁خواهند",
        -8.57564640045166
      ],
      [
        "▁جلسه",
        -8.579691886901855
      ],
      [
        "▁سوم",
        -8.580044746398926
      ],
      [
        "▁ملت",
        -8.580543518066406
      ],
      [
        "▁پا",
        -8.581298828125
      ],
      [
        "▁فرد",
        -8.58187198638916
      ],
      [
        "▁وضعیت",
        -8.584263801574707
      ],
      [
        "▁اختیار",
        -8.588953018188477
      ],
      [
        "▁شهری",
        -8.590215682983398
      ],
      [
        "▁یافته",
        -8.593645095825195
      ],
      [
        "▁ساله",
        -8.595046997070312
      ],
      [
        "▁نشده",
        -8.595917701721191
      ],
      [
        "▁آلمان",
        -8.597382545471191
      ],
      [
        "▁حل",
        -8.59752368927002
      ],
      [
        "▁سی",
        -8.60084342956543
      ],
      [
        "▁دادن",
        -8.602686882019043
      ],
      [
        "▁ارتباط",
        -8.605582237243652
      ],
      [
        "▁امکان",
        -8.60666561126709
      ],
      [
        "▁نخست",
        -8.608987808227539
      ],
      [
        "تان",
        -8.610199928283691
      ],
      [
        "▁سمت",
        -8.612844467163086
      ],
      [
        "▁معرفی",
        -8.613037109375
      ],
      [
        "▁زیرا",
        -8.615795135498047
      ],
      [
        "▁تبدیل",
        -8.618188858032227
      ],
      [
        "▁دفاع",
        -8.619315147399902
      ],
      [
        "▁آخر",
        -8.619538307189941
      ],
      [
        "▁کننده",
        -8.62293815612793
      ],
      [
        "▁رابطه",
        -8.628151893615723
      ],
      [
        "▁عکس",
        -8.628253936767578
      ],
      [
        "▁شکست",
        -8.630608558654785
      ],
      [
        "▁ده",
        -8.630967140197754
      ],
      [
        "▁نخستین",
        -8.632573127746582
      ],
      [
        "▁رخ",
        -8.633552551269531
      ],
      [
        "▁صبح",
        -8.636027336120605
      ],
      [
        "▁اروپا",
        -8.636983871459961
      ],
      [
        "▁تازه",
        -8.639449119567871
      ],
      [
        "▁شروع",
        -8.641182899475098
      ],
      [
        "▁مقامات",
        -8.64126968383789
      ],
      [
        "▁دریا",
        -8.642436027526855
      ],
      [
        "▁المللی",
        -8.642640113830566
      ],
      [
        "▁بدن",
        -8.642988204956055
      ],
      [
        "▁براساس",
        -8.644758224487305
      ],
      [
        "کنیم",
        -8.645101547241211
      ],
      [
        "▁نفس",
        -8.645535469055176
      ],
      [
        "▁آزادی",
        -8.646562576293945
      ],
      [
        "▁منابع",
        -8.647378921508789
      ],
      [
        "▁سایر",
        -8.64748764038086
      ],
      [
        "▁مشخص",
        -8.648427963256836
      ],
      [
        "▁مراسم",
        -8.650017738342285
      ],
      [
        "▁آنجا",
        -8.650100708007812
      ],
      [
        "▁عالم",
        -8.652508735656738
      ],
      [
        "▁ف",
        -8.653545379638672
      ],
      [
        "وا",
        -8.654818534851074
      ],
      [
        "▁پنج",
        -8.656906127929688
      ],
      [
        "▁دید",
        -8.657331466674805
      ],
      [
        "▁حسن",
        -8.657939910888672
      ],
      [
        "نا",
        -8.658132553100586
      ],
      [
        "▁پلیس",
        -8.658342361450195
      ],
      [
        "▁احمدی",
        -8.658958435058594
      ],
      [
        "▁روشن",
        -8.660000801086426
      ],
      [
        "▁نیروی",
        -8.661199569702148
      ],
      [
        "▁علت",
        -8.661343574523926
      ],
      [
        "▁آخرین",
        -8.6617431640625
      ],
      [
        "▁بهتر",
        -8.661880493164062
      ],
      [
        "▁اسرائیل",
        -8.6642484664917
      ],
      [
        "مان",
        -8.664825439453125
      ],
      [
        "▁سازی",
        -8.667990684509277
      ],
      [
        "▁بیرون",
        -8.669166564941406
      ],
      [
        "▁مالی",
        -8.670698165893555
      ],
      [
        "▁شوند",
        -8.672114372253418
      ],
      [
        "▁سایت",
        -8.672722816467285
      ],
      [
        "▁متر",
        -8.674271583557129
      ],
      [
        "▁رهبری",
        -8.679396629333496
      ],
      [
        "▁مسائل",
        -8.679890632629395
      ],
      [
        "▁زاده",
        -8.683533668518066
      ],
      [
        "▁برد",
        -8.685068130493164
      ],
      [
        "▁خبرگزاری",
        -8.685401916503906
      ],
      [
        "▁رفته",
        -8.686593055725098
      ],
      [
        "▁آورد",
        -8.688675880432129
      ],
      [
        "▁موجب",
        -8.69439697265625
      ],
      [
        "▁اینجا",
        -8.694565773010254
      ],
      [
        "▁أ",
        -8.69517707824707
      ],
      [
        "▁مناطق",
        -8.69692325592041
      ],
      [
        "ید",
        -8.700678825378418
      ],
      [
        "▁سخت",
        -8.704117774963379
      ],
      [
        "▁باشید",
        -8.704468727111816
      ],
      [
        "▁ص",
        -8.70496940612793
      ],
      [
        "▁داخلی",
        -8.705589294433594
      ],
      [
        "▁شعر",
        -8.709692001342773
      ],
      [
        "▁نماینده",
        -8.71288776397705
      ],
      [
        "▁مرحله",
        -8.712979316711426
      ],
      [
        "▁سنگ",
        -8.714823722839355
      ],
      [
        "▁انتظار",
        -8.715776443481445
      ],
      [
        "▁احساس",
        -8.71940803527832
      ],
      [
        "▁کشته",
        -8.719968795776367
      ],
      [
        "▁منظور",
        -8.720637321472168
      ],
      [
        "▁دانشجویان",
        -8.720913887023926
      ],
      [
        "ح",
        -8.721397399902344
      ],
      [
        "▁تهیه",
        -8.72221851348877
      ],
      [
        "▁خرید",
        -8.722392082214355
      ],
      [
        "▁معاون",
        -8.72319507598877
      ],
      [
        "▁شنبه",
        -8.723560333251953
      ],
      [
        "ال",
        -8.723682403564453
      ],
      [
        "▁کره",
        -8.72380542755127
      ],
      [
        "▁مدیر",
        -8.72603702545166
      ],
      [
        "▁صحبت",
        -8.72750473022461
      ],
      [
        "▁داشتند",
        -8.72851848602295
      ],
      [
        "▁میدان",
        -8.728880882263184
      ],
      [
        "▁سپس",
        -8.7298583984375
      ],
      [
        "▁کشتی",
        -8.730630874633789
      ],
      [
        "▁لب",
        -8.73069953918457
      ],
      [
        "▁جاری",
        -8.730728149414062
      ],
      [
        "▁اقتصاد",
        -8.731329917907715
      ],
      [
        "▁خبرنگاران",
        -8.73158073425293
      ],
      [
        "▁علاوه",
        -8.732417106628418
      ],
      [
        "▁حفظ",
        -8.732786178588867
      ],
      [
        "▁خیابان",
        -8.734092712402344
      ],
      [
        "▁فی",
        -8.734234809875488
      ],
      [
        "▁اجرا",
        -8.73436450958252
      ],
      [
        "▁طراحی",
        -8.735454559326172
      ],
      [
        "▁کنترل",
        -8.73554515838623
      ],
      [
        "▁ارزش",
        -8.7371244430542
      ],
      [
        "▁آمریکایی",
        -8.737430572509766
      ],
      [
        "▁کردم",
        -8.738730430603027
      ],
      [
        "▁هنگام",
        -8.74094295501709
      ],
      [
        "▁عالی",
        -8.741012573242188
      ],
      [
        "▁آیت",
        -8.745016098022461
      ],
      [
        "▁عمر",
        -8.745532035827637
      ],
      [
        "▁موسیقی",
        -8.747050285339355
      ],
      [
        "▁واحد",
        -8.748358726501465
      ],
      [
        "▁کسانی",
        -8.750044822692871
      ],
      [
        "▁داستان",
        -8.75046157836914
      ],
      [
        "▁علم",
        -8.754581451416016
      ],
      [
        "▁دولتی",
        -8.754732131958008
      ],
      [
        "▁بنابراین",
        -8.756282806396484
      ],
      [
        "▁انرژی",
        -8.75669002532959
      ],
      [
        "▁کمتر",
        -8.757098197937012
      ],
      [
        "▁خدمات",
        -8.75737190246582
      ],
      [
        "▁ضمن",
        -8.760082244873047
      ],
      [
        "▁امید",
        -8.76199722290039
      ],
      [
        "▁داخل",
        -8.763419151306152
      ],
      [
        "▁موارد",
        -8.764100074768066
      ],
      [
        "▁انگلیسی",
        -8.765558242797852
      ],
      [
        "▁اندازه",
        -8.767800331115723
      ],
      [
        "▁دم",
        -8.767871856689453
      ],
      [
        "▁اساسی",
        -8.76806354522705
      ],
      [
        "▁کوچک",
        -8.769613265991211
      ],
      [
        "▁اصلاح",
        -8.7701416015625
      ],
      [
        "▁دار",
        -8.770742416381836
      ],
      [
        "▁دی",
        -8.771391868591309
      ],
      [
        "گردد",
        -8.771504402160645
      ],
      [
        "▁یه",
        -8.771559715270996
      ],
      [
        "▁جمهور",
        -8.773286819458008
      ],
      [
        "در",
        -8.774394035339355
      ],
      [
        "▁خاص",
        -8.775611877441406
      ],
      [
        "▁بس",
        -8.777687072753906
      ],
      [
        "▁درمان",
        -8.778037071228027
      ],
      [
        "▁فضای",
        -8.778280258178711
      ],
      [
        "▁ریال",
        -8.779534339904785
      ],
      [
        "▁هسته",
        -8.77994155883789
      ],
      [
        "▁اصل",
        -8.780106544494629
      ],
      [
        "▁طبیعی",
        -8.783530235290527
      ],
      [
        "▁بیشتری",
        -8.784319877624512
      ],
      [
        "▁نمود",
        -8.784916877746582
      ],
      [
        "▁نمایندگان",
        -8.78497314453125
      ],
      [
        "▁داریم",
        -8.786842346191406
      ],
      [
        "▁مناسب",
        -8.787607192993164
      ],
      [
        "▁حد",
        -8.787996292114258
      ],
      [
        "▁لا",
        -8.791834831237793
      ],
      [
        "▁علوم",
        -8.793307304382324
      ],
      [
        "▁محیط",
        -8.797215461730957
      ],
      [
        "▁الل",
        -8.797399520874023
      ],
      [
        "▁موفق",
        -8.798689842224121
      ],
      [
        "▁تعیین",
        -8.802894592285156
      ],
      [
        "▁برگزاری",
        -8.8042631149292
      ],
      [
        "▁پدر",
        -8.804647445678711
      ],
      [
        "▁اداره",
        -8.806721687316895
      ],
      [
        "▁ارتش",
        -8.808499336242676
      ],
      [
        "▁چنان",
        -8.809955596923828
      ],
      [
        "▁مسیر",
        -8.81356430053711
      ],
      [
        "▁سید",
        -8.813570022583008
      ],
      [
        "▁ترک",
        -8.81550121307373
      ],
      [
        "▁بخشی",
        -8.81714153289795
      ],
      [
        "▁بعضی",
        -8.821452140808105
      ],
      [
        "▁رسمی",
        -8.8219633102417
      ],
      [
        "کردند",
        -8.82214069366455
      ],
      [
        "▁قصد",
        -8.822457313537598
      ],
      [
        "▁جنوب",
        -8.82284927368164
      ],
      [
        "▁رییس",
        -8.82300853729248
      ],
      [
        "▁تاریخی",
        -8.823144912719727
      ],
      [
        "▁جنوبی",
        -8.825305938720703
      ],
      [
        "ج",
        -8.825404167175293
      ],
      [
        "▁گیری",
        -8.826236724853516
      ],
      [
        "▁غربی",
        -8.830632209777832
      ],
      [
        "▁اضافه",
        -8.8314208984375
      ],
      [
        "▁تمامی",
        -8.831494331359863
      ],
      [
        "▁شهرداری",
        -8.831877708435059
      ],
      [
        "▁خلق",
        -8.834254264831543
      ],
      [
        "▁دادگاه",
        -8.835224151611328
      ],
      [
        "▁نو",
        -8.835611343383789
      ],
      [
        "▁افغانستان",
        -8.838516235351562
      ],
      [
        "▁دقیقه",
        -8.841071128845215
      ],
      [
        "گویند",
        -8.841166496276855
      ],
      [
        "▁مسئله",
        -8.842060089111328
      ],
      [
        "▁فرودگاه",
        -8.842183113098145
      ],
      [
        "▁خدمت",
        -8.842277526855469
      ],
      [
        "به",
        -8.842568397521973
      ],
      [
        "▁هیات",
        -8.843464851379395
      ],
      [
        "▁صنعت",
        -8.84664535522461
      ],
      [
        "▁پول",
        -8.8467378616333
      ],
      [
        "▁آسمان",
        -8.848725318908691
      ],
      [
        "▁فراهم",
        -8.850078582763672
      ],
      [
        "▁تاکنون",
        -8.850372314453125
      ],
      [
        "▁ترکیه",
        -8.852705955505371
      ],
      [
        "▁هنر",
        -8.853658676147461
      ],
      [
        "▁دهه",
        -8.854589462280273
      ],
      [
        "▁زیاد",
        -8.854674339294434
      ],
      [
        "▁درست",
        -8.856416702270508
      ],
      [
        "▁پزشکی",
        -8.856420516967773
      ],
      [
        "▁بودجه",
        -8.857806205749512
      ],
      [
        "▁گرم",
        -8.85978889465332
      ],
      [
        "▁شمال",
        -8.860420227050781
      ],
      [
        "▁آید",
        -8.860793113708496
      ],
      [
        "▁درون",
        -8.862125396728516
      ],
      [
        "▁تجربه",
        -8.866703033447266
      ],
      [
        "▁یار",
        -8.86959171295166
      ],
      [
        "▁تصریح",
        -8.869603157043457
      ],
      [
        "▁ماده",
        -8.871652603149414
      ],
      [
        "▁پیروزی",
        -8.87216567993164
      ],
      [
        "▁گذاری",
        -8.873603820800781
      ],
      [
        "▁برخورد",
        -8.87427806854248
      ],
      [
        "▁نباید",
        -8.874414443969727
      ],
      [
        "▁نمونه",
        -8.87515926361084
      ],
      [
        "▁تامین",
        -8.877968788146973
      ],
      [
        "اس",
        -8.878544807434082
      ],
      [
        "▁چیز",
        -8.879107475280762
      ],
      [
        "ور",
        -8.880425453186035
      ],
      [
        "▁خودرو",
        -8.880669593811035
      ],
      [
        "▁هوا",
        -8.88160514831543
      ],
      [
        "▁رهبر",
        -8.881701469421387
      ],
      [
        "▁دادند",
        -8.883289337158203
      ],
      [
        "▁قسمت",
        -8.883687019348145
      ],
      [
        "▁ملل",
        -8.88383960723877
      ],
      [
        "▁باقی",
        -8.884851455688477
      ],
      [
        "▁ملک",
        -8.884923934936523
      ],
      [
        "▁بینی",
        -8.88505744934082
      ],
      [
        "▁همچون",
        -8.887174606323242
      ],
      [
        "▁خارجه",
        -8.888529777526855
      ],
      [
        "▁شهید",
        -8.888639450073242
      ],
      [
        "▁لحظه",
        -8.889363288879395
      ],
      [
        "▁باغ",
        -8.889580726623535
      ],
      [
        "▁کودکان",
        -8.890528678894043
      ],
      [
        "▁شاهد",
        -8.892285346984863
      ],
      [
        "▁غرب",
        -8.892962455749512
      ],
      [
        "▁ذکر",
        -8.893324851989746
      ],
      [
        "▁ان",
        -8.89342975616455
      ],
      [
        "▁شمار",
        -8.893744468688965
      ],
      [
        "▁مادر",
        -8.894566535949707
      ],
      [
        "الله",
        -8.895720481872559
      ],
      [
        "▁عرضه",
        -8.897631645202637
      ],
      [
        "▁مسابقات",
        -8.898195266723633
      ],
      [
        "▁مانده",
        -8.8997163772583
      ],
      [
        "سازی",
        -8.901954650878906
      ],
      [
        "▁گاه",
        -8.905316352844238
      ],
      [
        "▁علاقه",
        -8.905732154846191
      ],
      [
        "توانید",
        -8.905994415283203
      ],
      [
        "▁نشست",
        -8.90760612487793
      ],
      [
        "▁شمالی",
        -8.908312797546387
      ],
      [
        "▁رژیم",
        -8.912038803100586
      ],
      [
        "▁گوش",
        -8.91222858428955
      ],
      [
        "▁کوه",
        -8.914210319519043
      ],
      [
        "▁عملیات",
        -8.91429615020752
      ],
      [
        "▁دختر",
        -8.914307594299316
      ],
      [
        "▁آماده",
        -8.916374206542969
      ],
      [
        "▁زد",
        -8.916791915893555
      ],
      [
        "▁ترا",
        -8.917647361755371
      ],
      [
        "▁زنده",
        -8.918059349060059
      ],
      [
        "▁گشت",
        -8.919055938720703
      ],
      [
        "▁ترتیب",
        -8.919222831726074
      ],
      [
        "▁آمار",
        -8.920795440673828
      ],
      [
        "▁حالا",
        -8.921205520629883
      ],
      [
        "▁حقیقت",
        -8.922279357910156
      ],
      [
        "▁روزی",
        -8.922310829162598
      ],
      [
        "▁تلفن",
        -8.922470092773438
      ],
      [
        "▁حکومت",
        -8.924331665039062
      ],
      [
        "می",
        -8.925179481506348
      ],
      [
        "▁ل",
        -8.925887107849121
      ],
      [
        "▁زده",
        -8.933267593383789
      ],
      [
        "▁نکته",
        -8.935506820678711
      ],
      [
        "▁گردد",
        -8.935831069946289
      ],
      [
        "▁کلی",
        -8.936958312988281
      ],
      [
        "▁کجا",
        -8.937036514282227
      ],
      [
        "▁نخواهد",
        -8.937047004699707
      ],
      [
        "▁جوانان",
        -8.937224388122559
      ],
      [
        "▁فرصت",
        -8.937774658203125
      ],
      [
        "▁عاشق",
        -8.938003540039062
      ],
      [
        "▁جشنواره",
        -8.938070297241211
      ],
      [
        "▁رقابت",
        -8.939323425292969
      ],
      [
        "▁بلند",
        -8.940481185913086
      ],
      [
        "▁بنا",
        -8.94092082977295
      ],
      [
        "▁امسال",
        -8.941468238830566
      ],
      [
        "▁اجازه",
        -8.94170093536377
      ],
      [
        "▁ورود",
        -8.941981315612793
      ],
      [
        "▁سرعت",
        -8.942164421081543
      ],
      [
        "▁همی",
        -8.942709922790527
      ],
      [
        "▁سیاه",
        -8.94277572631836
      ],
      [
        "▁حکم",
        -8.94378662109375
      ],
      [
        "▁قانونی",
        -8.943984985351562
      ],
      [
        "▁فارس",
        -8.94403076171875
      ],
      [
        "▁معنی",
        -8.944257736206055
      ],
      [
        "▁ورزشی",
        -8.94435977935791
      ],
      [
        "▁مسئولان",
        -8.944511413574219
      ],
      [
        "▁دیروز",
        -8.945361137390137
      ],
      [
        "▁پرونده",
        -8.945934295654297
      ],
      [
        "▁گرفتن",
        -8.946544647216797
      ],
      [
        "▁شیر",
        -8.946605682373047
      ],
      [
        "▁قرآن",
        -8.948383331298828
      ],
      [
        "▁مگر",
        -8.948705673217773
      ],
      [
        "▁سری",
        -8.949026107788086
      ],
      [
        "▁دوباره",
        -8.951985359191895
      ],
      [
        "▁کوتاه",
        -8.95283031463623
      ],
      [
        "▁نمایشگاه",
        -8.954019546508789
      ],
      [
        "▁جمعه",
        -8.956185340881348
      ],
      [
        "▁بازیکن",
        -8.95626163482666
      ],
      [
        "▁اتفاق",
        -8.957568168640137
      ],
      [
        "▁دستور",
        -8.95819091796875
      ],
      [
        "▁تصویب",
        -8.960145950317383
      ],
      [
        "از",
        -8.960471153259277
      ],
      [
        "▁مشاهده",
        -8.961557388305664
      ],
      [
        "▁دفتر",
        -8.962908744812012
      ],
      [
        "▁ازدواج",
        -8.963542938232422
      ],
      [
        "▁روند",
        -8.963800430297852
      ],
      [
        "▁پیشنهاد",
        -8.963887214660645
      ],
      [
        "گیری",
        -8.964771270751953
      ],
      [
        "▁حساب",
        -8.96502685546875
      ],
      [
        "▁داشتن",
        -8.965432167053223
      ],
      [
        "▁احتمال",
        -8.967110633850098
      ],
      [
        "▁تیر",
        -8.970680236816406
      ],
      [
        "▁نیمه",
        -8.97175407409668
      ],
      [
        "▁چگونه",
        -8.971795082092285
      ],
      [
        "▁عامل",
        -8.972697257995605
      ],
      [
        "▁دهند",
        -8.973464012145996
      ],
      [
        "▁دچار",
        -8.974072456359863
      ],
      [
        "یان",
        -8.97558307647705
      ],
      [
        "▁دیگران",
        -8.977254867553711
      ],
      [
        "▁پروژه",
        -8.97784423828125
      ],
      [
        "▁سعی",
        -8.978065490722656
      ],
      [
        "▁شخصیت",
        -8.978997230529785
      ],
      [
        "ار",
        -8.980072975158691
      ],
      [
        "▁خورشید",
        -8.980314254760742
      ],
      [
        "▁هستیم",
        -8.980528831481934
      ],
      [
        "▁اهمیت",
        -8.982369422912598
      ],
      [
        "▁عملکرد",
        -8.984933853149414
      ],
      [
        "▁سبز",
        -8.987250328063965
      ],
      [
        "▁حالت",
        -8.988251686096191
      ],
      [
        "▁انتقال",
        -8.988619804382324
      ],
      [
        "▁تصویر",
        -8.98936653137207
      ],
      [
        "▁طبق",
        -8.989779472351074
      ],
      [
        "▁چهره",
        -8.989972114562988
      ],
      [
        "▁همچنان",
        -8.99116039276123
      ],
      [
        "▁مشترک",
        -8.991772651672363
      ],
      [
        "▁سن",
        -8.99205493927002
      ],
      [
        "▁داری",
        -8.992732048034668
      ],
      [
        "▁دگر",
        -8.99310302734375
      ],
      [
        "▁آدم",
        -8.994010925292969
      ],
      [
        "▁بند",
        -8.998270988464355
      ],
      [
        "▁هرگز",
        -9.001791954040527
      ],
      [
        "دار",
        -9.002965927124023
      ],
      [
        "▁فشار",
        -9.005463600158691
      ],
      [
        "▁جدی",
        -9.007204055786133
      ],
      [
        "▁حاصل",
        -9.00859546661377
      ],
      [
        "را",
        -9.00941276550293
      ],
      [
        "▁خداوند",
        -9.01158046722412
      ],
      [
        "▁پاک",
        -9.012836456298828
      ],
      [
        "▁پیام",
        -9.015629768371582
      ],
      [
        "▁درآمد",
        -9.015896797180176
      ],
      [
        "▁خودش",
        -9.017219543457031
      ],
      [
        "▁ک",
        -9.017315864562988
      ],
      [
        "▁صحنه",
        -9.0180025100708
      ],
      [
        "▁حادثه",
        -9.018585205078123
      ],
      [
        "▁چاپ",
        -9.01894474029541
      ],
      [
        "▁فوق",
        -9.019350051879885
      ],
      [
        "▁انتشار",
        -9.01937770843506
      ],
      [
        "▁آورده",
        -9.019624710083008
      ],
      [
        "▁پسر",
        -9.019771575927734
      ],
      [
        "▁کز",
        -9.019987106323242
      ],
      [
        "▁کمیته",
        -9.022236824035645
      ],
      [
        "▁صفحه",
        -9.02270793914795
      ],
      [
        "▁کمیسیون",
        -9.024542808532717
      ],
      [
        "▁جلوگیری",
        -9.024913787841797
      ],
      [
        "▁لیگ",
        -9.030517578125
      ],
      [
        "▁گسترش",
        -9.032087326049805
      ],
      [
        "▁نباشد",
        -9.032217025756836
      ],
      [
        "▁نهایت",
        -9.032669067382812
      ],
      [
        "▁ورزش",
        -9.032694816589355
      ],
      [
        "▁گاهی",
        -9.033255577087402
      ],
      [
        "▁کمی",
        -9.03474235534668
      ],
      [
        "▁کودک",
        -9.03549861907959
      ],
      [
        "▁مطلب",
        -9.03690242767334
      ],
      [
        "▁دشمن",
        -9.037141799926758
      ],
      [
        "▁بدین",
        -9.037571907043455
      ],
      [
        "▁تحقیقات",
        -9.037665367126465
      ],
      [
        "▁پایه",
        -9.03854751586914
      ],
      [
        "▁صنایع",
        -9.03868293762207
      ],
      [
        "▁سرویس",
        -9.039149284362791
      ],
      [
        "▁زندان",
        -9.03944206237793
      ],
      [
        "▁مبارزه",
        -9.03968620300293
      ],
      [
        "▁سبک",
        -9.04059600830078
      ],
      [
        "▁سبب",
        -9.041404724121094
      ],
      [
        "▁اطلاع",
        -9.041681289672852
      ],
      [
        "▁بهار",
        -9.041789054870604
      ],
      [
        "▁اتحادیه",
        -9.042004585266112
      ],
      [
        "▁بودم",
        -9.04287815093994
      ],
      [
        "▁عصر",
        -9.043076515197754
      ],
      [
        "▁سفید",
        -9.045980453491213
      ],
      [
        "▁پخش",
        -9.047033309936523
      ],
      [
        "▁رد",
        -9.047636032104492
      ],
      [
        "▁گرد",
        -9.048245429992676
      ],
      [
        "▁قلب",
        -9.04926300048828
      ],
      [
        "▁گفتم",
        -9.050078392028809
      ],
      [
        "▁ساده",
        -9.05198860168457
      ],
      [
        "▁نژاد",
        -9.052779197692873
      ],
      [
        "▁پایین",
        -9.0532865524292
      ],
      [
        "▁فعال",
        -9.055480003356934
      ],
      [
        "▁نرم",
        -9.057159423828123
      ],
      [
        "تری",
        -9.058253288269045
      ],
      [
        "▁فاصله",
        -9.0588960647583
      ],
      [
        "▁رفتن",
        -9.059365272521973
      ],
      [
        "▁خصوصی",
        -9.060729026794434
      ],
      [
        "▁صلح",
        -9.061399459838867
      ],
      [
        "▁دانست",
        -9.061563491821287
      ],
      [
        "▁خبری",
        -9.06536865234375
      ],
      [
        "▁ظاهر",
        -9.066774368286133
      ],
      [
        "▁پرورش",
        -9.06691551208496
      ],
      [
        "▁آموزشی",
        -9.067289352416992
      ],
      [
        "▁جایی",
        -9.06742000579834
      ],
      [
        "▁چیست",
        -9.06811237335205
      ],
      [
        "▁لباس",
        -9.068934440612791
      ],
      [
        "▁پاکستان",
        -9.069170951843262
      ],
      [
        "▁شش",
        -9.073811531066896
      ],
      [
        "▁جدا",
        -9.075231552124023
      ],
      [
        "▁شخصی",
        -9.075757026672363
      ],
      [
        "برد",
        -9.076566696166992
      ],
      [
        "▁استاد",
        -9.07663631439209
      ],
      [
        "یت",
        -9.076855659484863
      ],
      [
        "▁درخواست",
        -9.078269004821776
      ],
      [
        "▁ضد",
        -9.07932472229004
      ],
      [
        "▁عرصه",
        -9.08103370666504
      ],
      [
        "▁یکدیگر",
        -9.082483291625977
      ],
      [
        "▁شدم",
        -9.082833290100098
      ],
      [
        "▁مثال",
        -9.083454132080078
      ],
      [
        "▁گاز",
        -9.089734077453612
      ],
      [
        "▁ساز",
        -9.090335845947266
      ],
      [
        "▁کافی",
        -9.090758323669434
      ],
      [
        "▁روح",
        -9.093350410461426
      ],
      [
        "▁باره",
        -9.094834327697754
      ],
      [
        "▁اجرایی",
        -9.094853401184082
      ],
      [
        "▁رضا",
        -9.095333099365234
      ],
      [
        "▁تاثیر",
        -9.09591293334961
      ],
      [
        "▁تک",
        -9.09636116027832
      ],
      [
        "▁نتایج",
        -9.096744537353516
      ],
      [
        "▁صاحب",
        -9.097410202026367
      ],
      [
        "▁ندارند",
        -9.09870147705078
      ],
      [
        "▁انجمن",
        -9.0989990234375
      ],
      [
        "لی",
        -9.100934982299805
      ],
      [
        "▁مکان",
        -9.10104274749756
      ],
      [
        "▁ساختمان",
        -9.101892471313477
      ],
      [
        "▁هفت",
        -9.102225303649902
      ],
      [
        "▁صدا",
        -9.104785919189451
      ],
      [
        "▁ایسنا",
        -9.104988098144531
      ],
      [
        "خواهد",
        -9.10517406463623
      ],
      [
        "▁سینه",
        -9.105734825134276
      ],
      [
        "▁اندیشه",
        -9.106118202209473
      ],
      [
        "▁عهده",
        -9.10615062713623
      ],
      [
        "▁حمل",
        -9.106358528137209
      ],
      [
        "▁راست",
        -9.107110023498535
      ],
      [
        "▁بهر",
        -9.107726097106934
      ],
      [
        "▁بنده",
        -9.108965873718262
      ],
      [
        "▁رفتار",
        -9.110389709472656
      ],
      [
        "▁نسخه",
        -9.111087799072266
      ],
      [
        "▁چندین",
        -9.111489295959473
      ],
      [
        "▁باشیم",
        -9.113390922546388
      ],
      [
        "▁برق",
        -9.113507270812988
      ],
      [
        "▁شیخ",
        -9.113778114318848
      ],
      [
        "▁روستا",
        -9.11570644378662
      ],
      [
        "▁صدای",
        -9.117241859436035
      ],
      [
        "▁موفقیت",
        -9.118099212646484
      ],
      [
        "▁انسانی",
        -9.118378639221191
      ],
      [
        "▁بازیکنان",
        -9.120583534240724
      ],
      [
        "▁گسترده",
        -9.12154769897461
      ],
      [
        "▁صنعتی",
        -9.121557235717772
      ],
      [
        "▁ام",
        -9.122441291809082
      ],
      [
        "▁ابتدا",
        -9.123252868652344
      ],
      [
        "▁کدام",
        -9.123915672302246
      ],
      [
        "▁افرادی",
        -9.12472152709961
      ],
      [
        "اید",
        -9.12559700012207
      ],
      [
        "▁خواست",
        -9.126173973083496
      ],
      [
        "▁درجه",
        -9.126306533813477
      ],
      [
        "▁پرده",
        -9.126768112182615
      ],
      [
        "▁مهدی",
        -9.128053665161133
      ],
      [
        "▁بچه",
        -9.13120174407959
      ],
      [
        "▁نقطه",
        -9.131973266601562
      ],
      [
        "▁دسته",
        -9.13210105895996
      ],
      [
        "▁عقل",
        -9.134527206420898
      ],
      [
        "▁پست",
        -9.13490104675293
      ],
      [
        "▁انواع",
        -9.134916305541992
      ],
      [
        "▁هاشمی",
        -9.135919570922852
      ],
      [
        "عنوان",
        -9.136062622070312
      ],
      [
        "بی",
        -9.136438369750977
      ],
      [
        "▁زیست",
        -9.136762619018556
      ],
      [
        "▁شناخته",
        -9.1381196975708
      ],
      [
        "▁هند",
        -9.139275550842283
      ],
      [
        "▁امنیتی",
        -9.139342308044434
      ],
      [
        "▁شیوه",
        -9.139959335327148
      ],
      [
        "▁نداشته",
        -9.14125633239746
      ],
      [
        "ذ",
        -9.141827583312988
      ],
      [
        "▁سابق",
        -9.141916275024414
      ],
      [
        "▁خطر",
        -9.142600059509276
      ],
      [
        "▁ظرفیت",
        -9.143823623657228
      ],
      [
        "▁روان",
        -9.147394180297852
      ],
      [
        "▁س",
        -9.147680282592772
      ],
      [
        "▁نظارت",
        -9.147870063781738
      ],
      [
        "▁اعتماد",
        -9.147951126098633
      ],
      [
        "▁سود",
        -9.148026466369627
      ],
      [
        "▁دیدن",
        -9.148221969604492
      ],
      [
        "▁آسیا",
        -9.148236274719238
      ],
      [
        "▁مسابقه",
        -9.148260116577148
      ],
      [
        "▁پیشرفت",
        -9.149665832519531
      ],
      [
        "▁گیرد",
        -9.150390625
      ],
      [
        "▁عوامل",
        -9.15080738067627
      ],
      [
        "▁بوی",
        -9.151638984680176
      ],
      [
        "▁سرشماری",
        -9.153213500976562
      ],
      [
        "▁رسیدن",
        -9.15349292755127
      ],
      [
        "▁مردان",
        -9.154139518737791
      ],
      [
        "▁اتمی",
        -9.154667854309082
      ],
      [
        "▁فنی",
        -9.15530776977539
      ],
      [
        "▁ژاپن",
        -9.156169891357422
      ],
      [
        "▁مدل",
        -9.156715393066406
      ],
      [
        "کنید",
        -9.1568021774292
      ],
      [
        "▁دوستان",
        -9.15703010559082
      ],
      [
        "▁اش",
        -9.158093452453612
      ],
      [
        "دی",
        -9.158526420593262
      ],
      [
        "▁قتل",
        -9.158710479736328
      ],
      [
        "▁کو",
        -9.159746170043944
      ],
      [
        "▁اقدامات",
        -9.160639762878418
      ],
      [
        "▁عین",
        -9.161294937133787
      ],
      [
        "▁وزن",
        -9.161873817443848
      ],
      [
        "▁نماز",
        -9.163240432739258
      ],
      [
        "▁آفتاب",
        -9.169366836547852
      ],
      [
        "رو",
        -9.169825553894045
      ],
      [
        "▁احمد",
        -9.170327186584473
      ],
      [
        "▁گذشت",
        -9.17047882080078
      ],
      [
        "▁فرو",
        -9.170635223388672
      ],
      [
        "▁مشارکت",
        -9.172292709350586
      ],
      [
        "المللی",
        -9.17236614227295
      ],
      [
        "▁کشاورزی",
        -9.172749519348145
      ],
      [
        "▁نکرده",
        -9.173712730407717
      ],
      [
        "▁روستای",
        -9.174019813537598
      ],
      [
        "▁فرزند",
        -9.174849510192873
      ],
      [
        "▁اشک",
        -9.175931930541992
      ],
      [
        "▁شرح",
        -9.176427841186523
      ],
      [
        "▁نرخ",
        -9.178369522094728
      ],
      [
        "▁دنیای",
        -9.17947769165039
      ],
      [
        "▁دهستان",
        -9.18339729309082
      ],
      [
        "▁آسیب",
        -9.184377670288086
      ],
      [
        "▁اعمال",
        -9.184791564941406
      ],
      [
        "▁وسیله",
        -9.185650825500488
      ],
      [
        "▁نشد",
        -9.185798645019531
      ],
      [
        "▁ستاره",
        -9.18669319152832
      ],
      [
        "▁جایگاه",
        -9.187247276306152
      ],
      [
        "▁شدت",
        -9.187623977661133
      ],
      [
        "▁معروف",
        -9.188199996948242
      ],
      [
        "▁هنری",
        -9.188254356384276
      ],
      [
        "▁محصولات",
        -9.188786506652832
      ],
      [
        "▁ارسال",
        -9.19224739074707
      ],
      [
        "بر",
        -9.193084716796877
      ],
      [
        "▁بدان",
        -9.195176124572754
      ],
      [
        "▁مه",
        -9.195561408996582
      ],
      [
        "▁مواجه",
        -9.195905685424805
      ],
      [
        "خ",
        -9.195984840393066
      ],
      [
        "▁حداقل",
        -9.19660186767578
      ],
      [
        "▁بهداشت",
        -9.1968355178833
      ],
      [
        "▁اولیه",
        -9.196876525878906
      ],
      [
        "▁مراکز",
        -9.197667121887209
      ],
      [
        "▁شکر",
        -9.197824478149414
      ],
      [
        "▁باور",
        -9.198758125305176
      ],
      [
        "▁مشغول",
        -9.199308395385742
      ],
      [
        "▁سراسر",
        -9.19949436187744
      ],
      [
        "▁برخوردار",
        -9.200112342834473
      ],
      [
        "▁گردید",
        -9.201263427734377
      ],
      [
        "▁تشخیص",
        -9.201635360717772
      ],
      [
        "▁\\",
        -9.202611923217772
      ],
      [
        "▁ایالت",
        -9.203316688537598
      ],
      [
        "▁پوست",
        -9.20344066619873
      ],
      [
        "▁خانم",
        -9.204198837280272
      ],
      [
        "▁کنی",
        -9.20730209350586
      ],
      [
        "▁اصفهان",
        -9.208134651184082
      ],
      [
        "▁شدید",
        -9.209545135498049
      ],
      [
        "▁سوریه",
        -9.209662437438965
      ],
      [
        "▁قبول",
        -9.209718704223633
      ],
      [
        "▁قرن",
        -9.211716651916504
      ],
      [
        "▁نهایی",
        -9.212892532348633
      ],
      [
        "▁شرقی",
        -9.21298599243164
      ],
      [
        "▁گذاشته",
        -9.21313190460205
      ],
      [
        "▁منبع",
        -9.213685035705566
      ],
      [
        "▁هوای",
        -9.214052200317385
      ],
      [
        "▁دعوت",
        -9.21494960784912
      ],
      [
        "▁تحقیق",
        -9.218599319458008
      ],
      [
        "▁زین",
        -9.219289779663086
      ],
      [
        "▁ناشی",
        -9.219618797302246
      ],
      [
        "▁سوال",
        -9.219976425170898
      ],
      [
        "▁بیا",
        -9.220429420471191
      ],
      [
        "▁بگیرد",
        -9.223966598510742
      ],
      [
        "▁سایه",
        -9.22778034210205
      ],
      [
        "▁بیست",
        -9.228633880615234
      ],
      [
        "گی",
        -9.230366706848145
      ],
      [
        "▁محسوب",
        -9.231451988220217
      ],
      [
        "▁جایزه",
        -9.231888771057127
      ],
      [
        "▁نویسنده",
        -9.232477188110352
      ],
      [
        "▁نوعی",
        -9.23258113861084
      ],
      [
        "▁زیبا",
        -9.23447036743164
      ],
      [
        "▁پرواز",
        -9.235189437866213
      ],
      [
        "▁مذاکرات",
        -9.235363006591797
      ],
      [
        "▁برگ",
        -9.23563289642334
      ],
      [
        "▁همواره",
        -9.235687255859377
      ],
      [
        "▁خدای",
        -9.236244201660156
      ],
      [
        "▁اهداف",
        -9.23670482635498
      ],
      [
        "▁متهم",
        -9.23749542236328
      ],
      [
        "▁مراجعه",
        -9.24578857421875
      ],
      [
        "▁کیفیت",
        -9.24658203125
      ],
      [
        "▁واقعی",
        -9.24771213531494
      ],
      [
        "▁بوش",
        -9.247952461242676
      ],
      [
        "▁ق",
        -9.249188423156738
      ],
      [
        "▁مدرسه",
        -9.25045108795166
      ],
      [
        "▁بالای",
        -9.25115966796875
      ],
      [
        "▁قدر",
        -9.252100944519045
      ],
      [
        "▁قهرمانی",
        -9.253039360046388
      ],
      [
        "▁فردی",
        -9.25343894958496
      ],
      [
        "▁مسکن",
        -9.253497123718262
      ],
      [
        "▁مست",
        -9.253666877746582
      ],
      [
        "▁متفاوت",
        -9.25455093383789
      ],
      [
        "▁بالاتر",
        -9.255809783935549
      ],
      [
        "▁بشر",
        -9.257078170776367
      ],
      [
        "▁بازگشت",
        -9.25759220123291
      ],
      [
        "▁محصول",
        -9.257704734802246
      ],
      [
        "▁سینما",
        -9.257996559143066
      ],
      [
        "▁ماند",
        -9.259449005126951
      ],
      [
        "▁گو",
        -9.260933876037598
      ],
      [
        "▁آبی",
        -9.261212348937988
      ],
      [
        "▁متحد",
        -9.262166023254396
      ],
      [
        "▁بروز",
        -9.26237678527832
      ],
      [
        "▁لبنان",
        -9.26375961303711
      ],
      [
        "▁روزهای",
        -9.265765190124512
      ],
      [
        "▁تحصیل",
        -9.265902519226074
      ],
      [
        "▁کاملا",
        -9.266146659851074
      ],
      [
        "▁ثابت",
        -9.269965171813965
      ],
      [
        "▁کارشناسان",
        -9.27001953125
      ],
      [
        "طور",
        -9.271180152893066
      ],
      [
        "▁قوانین",
        -9.271449089050291
      ],
      [
        "▁عربستان",
        -9.272005081176758
      ],
      [
        "▁پیر",
        -9.272717475891112
      ],
      [
        "▁ویژگی",
        -9.27306079864502
      ],
      [
        "▁برده",
        -9.274624824523926
      ],
      [
        "▁نیم",
        -9.274897575378418
      ],
      [
        "▁بحران",
        -9.27602481842041
      ],
      [
        "▁شیرین",
        -9.278539657592772
      ],
      [
        "▁لحاظ",
        -9.278626441955566
      ],
      [
        "▁آرام",
        -9.279345512390137
      ],
      [
        "▁نهاد",
        -9.279562950134276
      ],
      [
        "▁مدیران",
        -9.280086517333984
      ],
      [
        "▁فردا",
        -9.280668258666992
      ],
      [
        "دانند",
        -9.281164169311523
      ],
      [
        "▁منجر",
        -9.28180980682373
      ],
      [
        "▁افتاد",
        -9.282671928405762
      ],
      [
        "▁کشف",
        -9.284436225891112
      ],
      [
        "یه",
        -9.285019874572754
      ],
      [
        "▁صرف",
        -9.286243438720703
      ],
      [
        "▁اس",
        -9.28691291809082
      ],
      [
        "▁کیلومتر",
        -9.287384033203123
      ],
      [
        "▁معمول",
        -9.287809371948242
      ],
      [
        "▁مسئول",
        -9.288148880004885
      ],
      [
        "▁کارت",
        -9.288301467895508
      ],
      [
        "▁خواستار",
        -9.288370132446287
      ],
      [
        "انه",
        -9.290265083312988
      ],
      [
        "▁برتر",
        -9.291790962219238
      ],
      [
        "▁جذب",
        -9.292072296142578
      ],
      [
        "▁نموده",
        -9.29324436187744
      ],
      [
        "▁فناوری",
        -9.29354476928711
      ],
      [
        "▁نشود",
        -9.294655799865724
      ],
      [
        "▁مسکونی",
        -9.296112060546877
      ],
      [
        "▁اختصاص",
        -9.296387672424316
      ],
      [
        "▁غذایی",
        -9.296792030334473
      ],
      [
        "▁رسول",
        -9.29725742340088
      ],
      [
        "داند",
        -9.297388076782228
      ],
      [
        "▁متن",
        -9.298178672790527
      ],
      [
        "▁کردیم",
        -9.29928207397461
      ],
      [
        "▁دهید",
        -9.300686836242676
      ],
      [
        "▁بیمه",
        -9.300850868225098
      ],
      [
        "نامه",
        -9.30333137512207
      ],
      [
        "▁چهارم",
        -9.30404567718506
      ],
      [
        "▁جاده",
        -9.304990768432615
      ],
      [
        "هم",
        -9.305872917175291
      ],
      [
        "▁معظم",
        -9.307543754577637
      ],
      [
        "▁نسل",
        -9.307544708251951
      ],
      [
        "▁مسجد",
        -9.308030128479004
      ],
      [
        "▁کان",
        -9.308123588562012
      ],
      [
        "▁فدراسیون",
        -9.308728218078612
      ],
      [
        "أ",
        -9.30880069732666
      ],
      [
        "▁بیت",
        -9.309314727783203
      ],
      [
        "▁هوایی",
        -9.311290740966797
      ],
      [
        "▁تلویزیون",
        -9.311524391174316
      ],
      [
        "▁نظیر",
        -9.312580108642578
      ],
      [
        "▁تحریم",
        -9.312857627868652
      ],
      [
        "▁نماید",
        -9.313140869140623
      ],
      [
        "▁امکانات",
        -9.317978858947754
      ],
      [
        "▁نداشت",
        -9.318341255187988
      ],
      [
        "▁باران",
        -9.318581581115724
      ],
      [
        "▁مرغ",
        -9.3190279006958
      ],
      [
        "سی",
        -9.319190979003906
      ],
      [
        "ما",
        -9.319405555725098
      ],
      [
        "▁قدیمی",
        -9.319448471069336
      ],
      [
        "▁حرفه",
        -9.31968116760254
      ],
      [
        "▁سریال",
        -9.319857597351074
      ],
      [
        "▁وظیفه",
        -9.319961547851562
      ],
      [
        "▁گفتند",
        -9.321137428283691
      ],
      [
        "▁فارسی",
        -9.32193660736084
      ],
      [
        "ئی",
        -9.322381973266602
      ],
      [
        "▁بندی",
        -9.322449684143066
      ],
      [
        "نژاد",
        -9.323294639587402
      ],
      [
        "▁سلامت",
        -9.324933052062988
      ],
      [
        "گاه",
        -9.325764656066896
      ],
      [
        "▁صادر",
        -9.327062606811523
      ],
      [
        "داد",
        -9.32883358001709
      ],
      [
        "▁افتاده",
        -9.328962326049805
      ],
      [
        "▁قرارداد",
        -9.32955551147461
      ],
      [
        "▁دارید",
        -9.329779624938965
      ],
      [
        "▁تماس",
        -9.329968452453612
      ],
      [
        "▁امیر",
        -9.330750465393066
      ],
      [
        "▁محمود",
        -9.330754280090332
      ],
      [
        "▁خاصی",
        -9.332773208618164
      ],
      [
        "▁کف",
        -9.332794189453123
      ],
      [
        "▁خاتمی",
        -9.333011627197266
      ],
      [
        "▁ج",
        -9.333218574523926
      ],
      [
        "▁گروهی",
        -9.334383964538574
      ],
      [
        "زند",
        -9.334762573242188
      ],
      [
        "▁آشنا",
        -9.335006713867188
      ],
      [
        "▁عمده",
        -9.335549354553224
      ],
      [
        "▁پ",
        -9.336966514587402
      ],
      [
        "▁ریزی",
        -9.341816902160645
      ],
      [
        "کننده",
        -9.34185791015625
      ],
      [
        "▁اوست",
        -9.342875480651855
      ],
      [
        "▁گران",
        -9.343369483947754
      ],
      [
        "▁د",
        -9.3433837890625
      ],
      [
        "▁شرق",
        -9.343542098999023
      ],
      [
        "▁واکنش",
        -9.343819618225098
      ],
      [
        "▁مساله",
        -9.345489501953123
      ],
      [
        "گیرند",
        -9.346003532409668
      ],
      [
        "▁نشانه",
        -9.346199035644531
      ],
      [
        "▁حذف",
        -9.346519470214844
      ],
      [
        "▁المپیک",
        -9.347152709960938
      ],
      [
        "▁سپاه",
        -9.347740173339844
      ],
      [
        "▁مستقیم",
        -9.348648071289062
      ],
      [
        "▁چرخ",
        -9.349544525146484
      ],
      [
        "▁زدن",
        -9.350205421447754
      ],
      [
        "با",
        -9.350558280944824
      ],
      [
        "▁دندان",
        -9.350678443908691
      ],
      [
        "▁مطالعه",
        -9.350765228271484
      ],
      [
        "نی",
        -9.35102653503418
      ],
      [
        "▁سرد",
        -9.35105800628662
      ],
      [
        "▁ارشد",
        -9.352343559265137
      ],
      [
        "▁خسته",
        -9.352551460266112
      ],
      [
        "▁اتاق",
        -9.353083610534668
      ],
      [
        "▁بعدی",
        -9.353721618652344
      ],
      [
        "یابد",
        -9.35400676727295
      ],
      [
        "▁انگلیس",
        -9.35649871826172
      ],
      [
        "▁خاطرنشان",
        -9.357863426208496
      ],
      [
        "▁نزد",
        -9.358198165893556
      ],
      [
        "▁گشته",
        -9.35830783843994
      ],
      [
        "▁نوشت",
        -9.358386039733888
      ],
      [
        "▁سوخت",
        -9.358454704284668
      ],
      [
        "▁ستاد",
        -9.360114097595217
      ],
      [
        "▁تقویت",
        -9.360745429992676
      ],
      [
        "▁الهی",
        -9.361196517944336
      ],
      [
        "▁خالی",
        -9.361595153808594
      ],
      [
        "▁متوجه",
        -9.361978530883787
      ],
      [
        "▁موقعیت",
        -9.362597465515137
      ],
      [
        "▁بال",
        -9.364740371704102
      ],
      [
        "▁خواسته",
        -9.36668300628662
      ],
      [
        "▁نی",
        -9.36670207977295
      ],
      [
        "▁واقعیت",
        -9.367356300354004
      ],
      [
        "▁قدم",
        -9.36740016937256
      ],
      [
        "▁پایگاه",
        -9.36802864074707
      ],
      [
        "▁آزمون",
        -9.369643211364746
      ],
      [
        "▁سو",
        -9.370000839233398
      ],
      [
        "▁ترجمه",
        -9.372522354125977
      ],
      [
        "▁توصیه",
        -9.373562812805176
      ],
      [
        "▁بزرگی",
        -9.374908447265623
      ],
      [
        "▁رقم",
        -9.375062942504885
      ],
      [
        "▁دقیق",
        -9.37717342376709
      ],
      [
        "▁تلویزیونی",
        -9.377187728881836
      ],
      [
        "▁همچو",
        -9.37765121459961
      ],
      [
        "▁ماهی",
        -9.377965927124023
      ],
      [
        "▁هستی",
        -9.378155708312988
      ],
      [
        "تو",
        -9.380013465881348
      ],
      [
        "شده",
        -9.380099296569824
      ],
      [
        "▁عزیز",
        -9.380349159240724
      ],
      [
        "گذاری",
        -9.380729675292969
      ],
      [
        "▁مقدس",
        -9.38099765777588
      ],
      [
        "▁اعتراض",
        -9.381006240844728
      ],
      [
        "▁تعبیر",
        -9.381987571716309
      ],
      [
        "▁شخص",
        -9.382650375366213
      ],
      [
        "▁ماشین",
        -9.383390426635742
      ],
      [
        "▁اختلاف",
        -9.384069442749023
      ],
      [
        "▁طلب",
        -9.38433837890625
      ],
      [
        "▁ابراز",
        -9.384411811828612
      ],
      [
        "▁موسوی",
        -9.384793281555176
      ],
      [
        "▁مصاحبه",
        -9.384807586669922
      ],
      [
        "▁قطع",
        -9.38487720489502
      ],
      [
        "▁انتقاد",
        -9.384937286376951
      ],
      [
        "▁رود",
        -9.3853120803833
      ],
      [
        "▁اطراف",
        -9.38610553741455
      ],
      [
        "▁قوه",
        -9.386757850646973
      ],
      [
        "▁تعریف",
        -9.387251853942873
      ],
      [
        "▁توافق",
        -9.38829517364502
      ],
      [
        "▁خیر",
        -9.390832901000977
      ],
      [
        "▁رعایت",
        -9.390912055969238
      ],
      [
        "▁مصر",
        -9.391716957092283
      ],
      [
        "▁سخنگوی",
        -9.391823768615724
      ],
      [
        "▁بدست",
        -9.393065452575684
      ],
      [
        "▁برون",
        -9.3941068649292
      ],
      [
        "▁بازداشت",
        -9.395075798034668
      ],
      [
        "▁گفتگو",
        -9.395121574401855
      ],
      [
        "▁مبنی",
        -9.39564037322998
      ],
      [
        "▁بهبود",
        -9.39631462097168
      ],
      [
        "▁تیغ",
        -9.396700859069824
      ],
      [
        "▁آل",
        -9.399882316589355
      ],
      [
        "▁رنج",
        -9.400632858276367
      ],
      [
        "▁ریشه",
        -9.400647163391112
      ],
      [
        "▁راز",
        -9.401018142700195
      ],
      [
        "▁موج",
        -9.401100158691406
      ],
      [
        "▁رای",
        -9.40167236328125
      ],
      [
        "▁رفع",
        -9.401893615722656
      ],
      [
        "▁پرسپولیس",
        -9.402709007263184
      ],
      [
        "▁حس",
        -9.402989387512209
      ],
      [
        "▁روزه",
        -9.403610229492188
      ],
      [
        "▁الی",
        -9.403844833374023
      ],
      [
        "▁هستم",
        -9.407511711120604
      ],
      [
        "گان",
        -9.408984184265137
      ],
      [
        "▁بهمن",
        -9.409249305725098
      ],
      [
        "▁قالب",
        -9.40990924835205
      ],
      [
        "▁بیمارستان",
        -9.41016674041748
      ],
      [
        "▁مغز",
        -9.41064739227295
      ],
      [
        "▁جواب",
        -9.411639213562012
      ],
      [
        "▁تپه",
        -9.41183090209961
      ],
      [
        "▁اغلب",
        -9.41377067565918
      ],
      [
        "▁کارهای",
        -9.415122985839844
      ],
      [
        "▁طولانی",
        -9.415793418884276
      ],
      [
        "▁تفاوت",
        -9.4169340133667
      ],
      [
        "▁جدیدی",
        -9.422504425048828
      ],
      [
        "▁نا",
        -9.422746658325195
      ],
      [
        "▁ار",
        -9.422926902770996
      ],
      [
        "▁افکار",
        -9.42408561706543
      ],
      [
        "▁خیال",
        -9.42714500427246
      ],
      [
        "▁شناسایی",
        -9.427163124084473
      ],
      [
        "▁دینی",
        -9.42916488647461
      ],
      [
        "▁زلف",
        -9.430522918701172
      ],
      [
        "▁امتیاز",
        -9.434805870056152
      ],
      [
        "کی",
        -9.436019897460938
      ],
      [
        "▁نیستند",
        -9.437288284301758
      ],
      [
        "▁ایتالیا",
        -9.438212394714355
      ],
      [
        "▁مسئولیت",
        -9.438464164733888
      ],
      [
        "▁قابلیت",
        -9.438569068908691
      ],
      [
        "▁مرز",
        -9.438735961914062
      ],
      [
        "▁نقاط",
        -9.440001487731934
      ],
      [
        "▁پوشش",
        -9.440767288208008
      ],
      [
        "▁چندان",
        -9.442744255065918
      ],
      [
        "▁سرزمین",
        -9.443455696105955
      ],
      [
        "▁استقبال",
        -9.44351863861084
      ],
      [
        "▁رسیدگی",
        -9.444708824157717
      ],
      [
        "▁جبهه",
        -9.446039199829102
      ],
      [
        "▁ناحیه",
        -9.446629524230955
      ],
      [
        "▁;",
        -9.44878387451172
      ],
      [
        "▁آذربایجان",
        -9.449347496032717
      ],
      [
        "▁توانایی",
        -9.449506759643556
      ],
      [
        "▁مجمع",
        -9.449563026428224
      ],
      [
        "ض",
        -9.44969367980957
      ],
      [
        "کار",
        -9.450608253479004
      ],
      [
        "▁محلی",
        -9.450775146484377
      ],
      [
        "▁فهرست",
        -9.452083587646484
      ],
      [
        "▁سلاح",
        -9.45263671875
      ],
      [
        "▁تهدید",
        -9.453218460083008
      ],
      [
        "من",
        -9.4535493850708
      ],
      [
        "▁اعتبار",
        -9.454140663146973
      ],
      [
        "▁سریع",
        -9.454253196716309
      ],
      [
        "▁ابر",
        -9.454328536987305
      ],
      [
        "▁مقدار",
        -9.455240249633787
      ],
      [
        "▁هشت",
        -9.45524787902832
      ],
      [
        "▁عباس",
        -9.455782890319824
      ],
      [
        "▁مر",
        -9.45586395263672
      ],
      [
        "وی",
        -9.457884788513184
      ],
      [
        "▁توزیع",
        -9.458259582519531
      ],
      [
        "▁قم",
        -9.459314346313477
      ],
      [
        "▁منزل",
        -9.460222244262695
      ],
      [
        "▁حیات",
        -9.460601806640623
      ],
      [
        "▁نحوه",
        -9.46225357055664
      ],
      [
        "آورد",
        -9.462660789489746
      ],
      [
        "▁خشک",
        -9.463092803955078
      ],
      [
        "▁قلم",
        -9.464884757995604
      ],
      [
        "▁پارک",
        -9.46498966217041
      ],
      [
        "▁عده",
        -9.465402603149414
      ],
      [
        "▁زان",
        -9.465773582458496
      ],
      [
        "▁بریتانیا",
        -9.46721649169922
      ],
      [
        "▁روستایی",
        -9.468446731567385
      ],
      [
        "▁کاربران",
        -9.468499183654783
      ],
      [
        "▁جالب",
        -9.46879768371582
      ],
      [
        "▁لطف",
        -9.469537734985352
      ],
      [
        "▁سخنان",
        -9.47004508972168
      ],
      [
        "▁مطبوعات",
        -9.470730781555176
      ],
      [
        "▁مقاومت",
        -9.470962524414062
      ],
      [
        "▁سلام",
        -9.471184730529783
      ],
      [
        "▁دیدم",
        -9.471267700195312
      ],
      [
        "▁جرم",
        -9.471487998962402
      ],
      [
        "▁گریه",
        -9.47174072265625
      ],
      [
        "▁کارشناسی",
        -9.472110748291016
      ],
      [
        "▁مذهبی",
        -9.472526550292969
      ],
      [
        "▁شهرهای",
        -9.47255039215088
      ],
      [
        "▁پل",
        -9.472599983215332
      ],
      [
        "▁مقاله",
        -9.472918510437012
      ],
      [
        "▁نگه",
        -9.474206924438477
      ],
      [
        "▁معنای",
        -9.47524642944336
      ],
      [
        "▁کشیده",
        -9.475553512573242
      ],
      [
        "▁پنهان",
        -9.476835250854492
      ],
      [
        "▁ولایت",
        -9.477645874023438
      ],
      [
        "▁جو",
        -9.478029251098633
      ],
      [
        "گری",
        -9.478718757629396
      ],
      [
        "ده",
        -9.47893238067627
      ],
      [
        "▁سنگین",
        -9.479168891906738
      ],
      [
        "▁دومین",
        -9.480326652526855
      ],
      [
        "ء",
        -9.480624198913574
      ],
      [
        "▁چهارشنبه",
        -9.48149585723877
      ],
      [
        "▁قوی",
        -9.48171615600586
      ],
      [
        "▁سرخ",
        -9.48207950592041
      ],
      [
        "▁عربی",
        -9.482621192932127
      ],
      [
        "▁مقایسه",
        -9.482873916625977
      ],
      [
        "▁اصول",
        -9.483057975769045
      ],
      [
        "▁تجاری",
        -9.483572959899902
      ],
      [
        "▁هدایت",
        -9.484869003295898
      ],
      [
        "▁شور",
        -9.485349655151367
      ],
      [
        "▁آباد",
        -9.486001014709473
      ],
      [
        "▁متاسفانه",
        -9.486111640930176
      ],
      [
        "▁همزمان",
        -9.486961364746094
      ],
      [
        "▁برداری",
        -9.487183570861816
      ],
      [
        "تا",
        -9.487483978271484
      ],
      [
        "▁بیانیه",
        -9.487564086914062
      ],
      [
        "▁کلیه",
        -9.488348007202148
      ],
      [
        "▁محدود",
        -9.488611221313477
      ],
      [
        "▁ترکیب",
        -9.491310119628906
      ],
      [
        "▁برسد",
        -9.491711616516112
      ],
      [
        "▁تقسیم",
        -9.492274284362791
      ],
      [
        "▁قول",
        -9.4931640625
      ],
      [
        "▁تایید",
        -9.493610382080078
      ],
      [
        "▁تنگ",
        -9.494235038757324
      ],
      [
        "▁پژوهش",
        -9.49548053741455
      ],
      [
        "▁صورتی",
        -9.497688293457031
      ],
      [
        "▁ایمان",
        -9.498150825500488
      ],
      [
        "▁واژه",
        -9.498812675476074
      ],
      [
        "ص",
        -9.498892784118652
      ],
      [
        "▁فرا",
        -9.499553680419922
      ],
      [
        "▁الا",
        -9.500335693359377
      ],
      [
        "▁مثبت",
        -9.501354217529297
      ],
      [
        "▁سهم",
        -9.501532554626465
      ],
      [
        "▁تربیت",
        -9.501619338989258
      ],
      [
        "▁تصور",
        -9.502345085144045
      ],
      [
        "▁قصه",
        -9.503265380859377
      ],
      [
        "▁شهروندان",
        -9.503270149230955
      ],
      [
        "▁راهی",
        -9.5043306350708
      ],
      [
        "▁عبور",
        -9.504514694213867
      ],
      [
        "▁تحلیل",
        -9.506901741027832
      ],
      [
        "▁دوشنبه",
        -9.508121490478516
      ],
      [
        "آباد",
        -9.510323524475098
      ],
      [
        "▁آه",
        -9.511125564575195
      ],
      [
        "▁حاشیه",
        -9.511841773986816
      ],
      [
        "▁یابد",
        -9.511865615844728
      ],
      [
        "▁کلاس",
        -9.511977195739746
      ],
      [
        "▁مخالف",
        -9.513364791870115
      ],
      [
        "▁عدالت",
        -9.51416015625
      ],
      [
        "▁روزگار",
        -9.514315605163574
      ],
      [
        "▁کارگردانی",
        -9.515873908996582
      ],
      [
        "▁سرو",
        -9.516103744506836
      ],
      [
        "▁داغ",
        -9.517264366149902
      ],
      [
        "▁زر",
        -9.517378807067873
      ],
      [
        "▁کمال",
        -9.517701148986816
      ],
      [
        "▁انتظامی",
        -9.518366813659668
      ],
      [
        "انی",
        -9.519365310668944
      ],
      [
        "▁باش",
        -9.51951503753662
      ],
      [
        "یست",
        -9.520428657531738
      ],
      [
        "▁قادر",
        -9.521297454833984
      ],
      [
        "▁خواهیم",
        -9.521591186523438
      ],
      [
        "▁مال",
        -9.521780014038086
      ],
      [
        "▁همسر",
        -9.523049354553224
      ],
      [
        "▁اخبار",
        -9.523287773132324
      ],
      [
        "▁توان",
        -9.523712158203123
      ],
      [
        "▁کنفرانس",
        -9.523741722106934
      ],
      [
        "▁فلک",
        -9.52478313446045
      ],
      [
        "▁بتواند",
        -9.525156021118164
      ],
      [
        "▁هنگامی",
        -9.52605152130127
      ],
      [
        "▁تغییرات",
        -9.526287078857422
      ],
      [
        "▁ندارم",
        -9.527311325073242
      ],
      [
        "▁خودم",
        -9.527320861816406
      ],
      [
        "▁شبیه",
        -9.5276517868042
      ],
      [
        "▁خان",
        -9.52880573272705
      ],
      [
        "▁سنت",
        -9.529419898986816
      ],
      [
        "▁غذا",
        -9.531203269958496
      ],
      [
        "▁کام",
        -9.531585693359377
      ],
      [
        "جمهور",
        -9.531807899475098
      ],
      [
        "▁مو",
        -9.531883239746094
      ],
      [
        "▁شان",
        -9.532262802124023
      ],
      [
        "▁دهم",
        -9.534777641296388
      ],
      [
        "▁نگرانی",
        -9.535888671875
      ],
      [
        "▁خرداد",
        -9.536089897155762
      ],
      [
        "▁تکرار",
        -9.536603927612305
      ],
      [
        "▁پایتخت",
        -9.536974906921388
      ],
      [
        "▁گردشگری",
        -9.537009239196776
      ],
      [
        "▁نقد",
        -9.537687301635742
      ],
      [
        "▁عبارت",
        -9.539464950561523
      ],
      [
        "▁همایش",
        -9.539752006530762
      ],
      [
        "▁تعدادی",
        -9.540090560913086
      ],
      [
        "▁کنون",
        -9.54047393798828
      ],
      [
        "تی",
        -9.540815353393556
      ],
      [
        "▁سیر",
        -9.541008949279783
      ],
      [
        "▁فلسطین",
        -9.541152000427246
      ],
      [
        "دانم",
        -9.544166564941406
      ],
      [
        "▁آگاهی",
        -9.544218063354492
      ],
      [
        "▁قال",
        -9.544400215148926
      ],
      [
        "▁بگو",
        -9.545138359069824
      ],
      [
        "▁حاکم",
        -9.546314239501951
      ],
      [
        "▁کشورمان",
        -9.54676914215088
      ],
      [
        "▁مشهد",
        -9.549202919006348
      ],
      [
        "▁اسم",
        -9.549616813659668
      ],
      [
        "▁اعتقاد",
        -9.551504135131836
      ],
      [
        "▁کشورها",
        -9.552434921264648
      ],
      [
        "▁پیگیری",
        -9.552679061889648
      ],
      [
        "▁فرمان",
        -9.552682876586914
      ],
      [
        "▁حملات",
        -9.55284595489502
      ],
      [
        "▁نان",
        -9.552911758422852
      ],
      [
        "▁سخنرانی",
        -9.55296516418457
      ],
      [
        "▁مذکور",
        -9.55325984954834
      ],
      [
        "▁دیوار",
        -9.55350112915039
      ],
      [
        "▁دام",
        -9.5541353225708
      ],
      [
        "▁آهن",
        -9.554362297058104
      ],
      [
        "▁اشتباه",
        -9.554875373840332
      ],
      [
        "▁نبرد",
        -9.55561351776123
      ],
      [
        "▁حجم",
        -9.556248664855955
      ],
      [
        "▁وحدت",
        -9.556855201721191
      ],
      [
        "▁پیامبر",
        -9.556900024414062
      ],
      [
        "▁تنهایی",
        -9.557513236999512
      ],
      [
        "▁گوشه",
        -9.558454513549805
      ],
      [
        "▁شادی",
        -9.559170722961426
      ],
      [
        "▁دستگیر",
        -9.559232711791992
      ],
      [
        "▁کوچه",
        -9.559728622436523
      ],
      [
        "▁بیمار",
        -9.559964179992676
      ],
      [
        "▁شمع",
        -9.560871124267578
      ],
      [
        "گفت",
        -9.560911178588867
      ],
      [
        "▁فریاد",
        -9.560948371887209
      ],
      [
        "▁حوادث",
        -9.561999320983888
      ],
      [
        "▁کنونی",
        -9.562166213989258
      ],
      [
        "یک",
        -9.563075065612791
      ],
      [
        "▁فلسطینی",
        -9.563931465148926
      ],
      [
        "▁موزه",
        -9.565028190612791
      ],
      [
        "▁سابقه",
        -9.565686225891112
      ],
      [
        "▁مشابه",
        -9.565787315368652
      ],
      [
        "▁بزرگترین",
        -9.56580924987793
      ],
      [
        "▁درخت",
        -9.567057609558104
      ],
      [
        "▁کنندگان",
        -9.567957878112791
      ],
      [
        "▁خمینی",
        -9.569549560546877
      ],
      [
        "▁خشونت",
        -9.571351051330566
      ],
      [
        "▁طلا",
        -9.571990966796877
      ],
      [
        "▁صدور",
        -9.57233715057373
      ],
      [
        "▁محکوم",
        -9.572940826416016
      ],
      [
        "▁فتنه",
        -9.573637962341309
      ],
      [
        "▁توضیح",
        -9.574010848999023
      ],
      [
        "▁قضایی",
        -9.574256896972656
      ],
      [
        "▁خوردن",
        -9.576661109924316
      ],
      [
        "▁نیک",
        -9.577369689941406
      ],
      [
        "بندی",
        -9.577655792236328
      ],
      [
        "▁لذا",
        -9.578618049621582
      ],
      [
        "▁سهام",
        -9.579591751098633
      ],
      [
        "▁مدتی",
        -9.579819679260254
      ],
      [
        "▁رها",
        -9.579856872558594
      ],
      [
        "▁مقابله",
        -9.579991340637209
      ],
      [
        "▁پرسش",
        -9.580180168151855
      ],
      [
        "▁بمب",
        -9.582131385803224
      ],
      [
        "▁صندوق",
        -9.582538604736328
      ],
      [
        "▁قلعه",
        -9.583160400390623
      ],
      [
        "▁تمبر",
        -9.583393096923828
      ],
      [
        "لا",
        -9.583728790283203
      ],
      [
        "▁مسلمان",
        -9.584009170532228
      ],
      [
        "▁صادرات",
        -9.584421157836914
      ],
      [
        "▁تنظیم",
        -9.584651947021484
      ],
      [
        "▁دریای",
        -9.584691047668455
      ],
      [
        "▁لایحه",
        -9.585285186767578
      ],
      [
        "▁مهمترین",
        -9.585710525512695
      ],
      [
        "▁خرد",
        -9.585738182067873
      ],
      [
        "▁حلقه",
        -9.58579158782959
      ],
      [
        "▁هرچه",
        -9.585973739624023
      ],
      [
        "▁اینترنت",
        -9.587486267089844
      ],
      [
        "▁مرتبط",
        -9.5875244140625
      ],
      [
        "▁ذهن",
        -9.588730812072754
      ],
      [
        "▁عرض",
        -9.58887767791748
      ],
      [
        "▁قبلی",
        -9.588943481445312
      ],
      [
        "▁فعلی",
        -9.59113883972168
      ],
      [
        "▁شو",
        -9.593557357788086
      ],
      [
        "▁نجات",
        -9.594293594360352
      ],
      [
        "▁حجت",
        -9.594630241394045
      ],
      [
        "▁دامن",
        -9.59545612335205
      ],
      [
        "▁معتقد",
        -9.596744537353516
      ],
      [
        "ول",
        -9.597128868103027
      ],
      [
        "▁بو",
        -9.597310066223145
      ],
      [
        "▁دوربین",
        -9.597769737243652
      ],
      [
        "▁میوه",
        -9.597848892211914
      ],
      [
        "▁سنتی",
        -9.598301887512209
      ],
      [
        "▁گام",
        -9.598873138427734
      ],
      [
        "▁ساختار",
        -9.59922981262207
      ],
      [
        "▁مخالفت",
        -9.600886344909668
      ],
      [
        "▁رتبه",
        -9.60133171081543
      ],
      [
        "▁دسترسی",
        -9.60163402557373
      ],
      [
        "بینی",
        -9.601773262023926
      ],
      [
        "شناسی",
        -9.602350234985352
      ],
      [
        "▁خورد",
        -9.602846145629885
      ],
      [
        "▁منفی",
        -9.60361671447754
      ],
      [
        "▁نقاشی",
        -9.603996276855469
      ],
      [
        "▁تخت",
        -9.605321884155272
      ],
      [
        "▁اون",
        -9.606690406799316
      ],
      [
        "تون",
        -9.60717487335205
      ],
      [
        "▁ابن",
        -9.608755111694336
      ],
      [
        "▁خلاف",
        -9.608776092529297
      ],
      [
        "▁امشب",
        -9.609119415283203
      ],
      [
        "▁سکوت",
        -9.609512329101562
      ],
      [
        "▁هیئت",
        -9.60981273651123
      ],
      [
        "▁اکثر",
        -9.610527992248535
      ],
      [
        "▁درس",
        -9.610532760620115
      ],
      [
        "ِّ",
        -9.610907554626465
      ],
      [
        "▁برادر",
        -9.612030982971191
      ],
      [
        "▁جمعی",
        -9.61210823059082
      ],
      [
        "▁پور",
        -9.612269401550291
      ],
      [
        "▁دبیر",
        -9.61401081085205
      ],
      [
        "▁ایستگاه",
        -9.614118576049805
      ],
      [
        "▁کاخ",
        -9.61443328857422
      ],
      [
        "▁زود",
        -9.615046501159668
      ],
      [
        "▁آرامش",
        -9.616206169128418
      ],
      [
        "▁نکند",
        -9.616415977478027
      ],
      [
        "▁نبوده",
        -9.617884635925291
      ],
      [
        "▁مذاکره",
        -9.619407653808594
      ],
      [
        "▁مدارس",
        -9.620882987976074
      ],
      [
        "▁تیره",
        -9.620952606201172
      ],
      [
        "▁نصب",
        -9.62102508544922
      ],
      [
        "▁ادبیات",
        -9.621026039123535
      ],
      [
        "▁کوی",
        -9.621137619018556
      ],
      [
        "▁گیر",
        -9.623743057250977
      ],
      [
        "▁دیدگاه",
        -9.623798370361328
      ],
      [
        "▁خنده",
        -9.624041557312012
      ],
      [
        "▁یکشنبه",
        -9.62458610534668
      ],
      [
        "▁تصاویر",
        -9.625975608825684
      ],
      [
        "▁صدر",
        -9.626749992370604
      ],
      [
        "▁ارزیابی",
        -9.62676239013672
      ],
      [
        "▁ازین",
        -9.628110885620115
      ],
      [
        "▁باند",
        -9.62890338897705
      ],
      [
        "▁موبایل",
        -9.62900161743164
      ],
      [
        "▁زخم",
        -9.629225730895996
      ],
      [
        "▁گذاشت",
        -9.630460739135742
      ],
      [
        "▁سگ",
        -9.630539894104004
      ],
      [
        "▁بهشت",
        -9.63131046295166
      ],
      [
        "▁عدد",
        -9.633374214172363
      ],
      [
        "▁وعده",
        -9.633377075195312
      ],
      [
        "▁گه",
        -9.634313583374023
      ],
      [
        "▁عرب",
        -9.634496688842772
      ],
      [
        "▁جنبش",
        -9.635313987731934
      ],
      [
        "▁خراسان",
        -9.636056900024414
      ],
      [
        "غ",
        -9.636263847351074
      ],
      [
        "▁مجموع",
        -9.638976097106934
      ],
      [
        "▁عقب",
        -9.640474319458008
      ],
      [
        "▁خواند",
        -9.64065647125244
      ],
      [
        "▁روزانه",
        -9.6410551071167
      ],
      [
        "▁آقا",
        -9.643851280212402
      ],
      [
        "▁زیبایی",
        -9.6458101272583
      ],
      [
        "▁ارتفاع",
        -9.645814895629885
      ],
      [
        "▁ماست",
        -9.646950721740724
      ],
      [
        "▁دلایل",
        -9.647297859191896
      ],
      [
        "▁مردی",
        -9.647762298583984
      ],
      [
        "▁دریایی",
        -9.648430824279783
      ],
      [
        "▁مبارک",
        -9.648619651794434
      ],
      [
        "▁سیم",
        -9.649155616760254
      ],
      [
        "▁آزمایش",
        -9.649903297424316
      ],
      [
        "▁کد",
        -9.650209426879885
      ],
      [
        "▁نزدیکی",
        -9.650856018066406
      ],
      [
        "ث",
        -9.65199375152588
      ],
      [
        "▁تجارت",
        -9.653109550476074
      ],
      [
        "وگو",
        -9.654726028442385
      ],
      [
        "▁منتقل",
        -9.654998779296877
      ],
      [
        "▁پذیرش",
        -9.655047416687012
      ],
      [
        "گ",
        -9.655747413635254
      ],
      [
        "▁مربی",
        -9.656140327453612
      ],
      [
        "▁اطلاعاتی",
        -9.65628147125244
      ],
      [
        "▁شیشه",
        -9.656332015991213
      ],
      [
        "لو",
        -9.656429290771484
      ],
      [
        "▁هستید",
        -9.656721115112305
      ],
      [
        "▁گم",
        -9.657994270324709
      ],
      [
        "ط",
        -9.65929889678955
      ],
      [
        "▁پیاده",
        -9.659516334533691
      ],
      [
        "▁برداشت",
        -9.659627914428713
      ],
      [
        "▁شک",
        -9.659921646118164
      ],
      [
        "▁تکنولوژی",
        -9.659984588623049
      ],
      [
        "▁برچسب",
        -9.660038948059082
      ],
      [
        "▁شاخص",
        -9.66026782989502
      ],
      [
        "▁درک",
        -9.660772323608398
      ],
      [
        "▁جشن",
        -9.66229248046875
      ],
      [
        "▁مساحت",
        -9.662606239318848
      ],
      [
        "▁وضع",
        -9.663201332092283
      ],
      [
        "▁متوسط",
        -9.66342830657959
      ],
      [
        "▁فراموش",
        -9.664258003234863
      ],
      [
        "▁ایده",
        -9.664420127868652
      ],
      [
        "▁توانست",
        -9.665590286254885
      ],
      [
        "▁مسلمانان",
        -9.665639877319336
      ],
      [
        "▁حقوقی",
        -9.665864944458008
      ],
      [
        "▁بازیگر",
        -9.66586685180664
      ],
      [
        "▁همانند",
        -9.66729736328125
      ],
      [
        "▁جزیره",
        -9.667433738708496
      ],
      [
        "▁آلبوم",
        -9.668395042419434
      ],
      [
        "▁رسانی",
        -9.668537139892578
      ],
      [
        "▁وابسته",
        -9.668846130371094
      ],
      [
        "▁قهرمان",
        -9.668905258178713
      ],
      [
        "▁آی",
        -9.671771049499512
      ],
      [
        "▁موثر",
        -9.67229175567627
      ],
      [
        "▁همشهری",
        -9.673330307006836
      ],
      [
        "▁مبلغ",
        -9.673344612121582
      ],
      [
        "▁زنی",
        -9.673429489135742
      ],
      [
        "▁برنده",
        -9.67506504058838
      ],
      [
        "▁دشت",
        -9.675933837890623
      ],
      [
        "▁تست",
        -9.675958633422852
      ],
      [
        "▁شهادت",
        -9.679973602294922
      ],
      [
        "خواهند",
        -9.68008041381836
      ],
      [
        "▁مک",
        -9.680221557617188
      ],
      [
        "▁صبر",
        -9.680866241455078
      ],
      [
        "▁نهم",
        -9.680868148803713
      ],
      [
        "▁رده",
        -9.681589126586914
      ],
      [
        "▁لندن",
        -9.682244300842283
      ],
      [
        "▁دشمنان",
        -9.68227767944336
      ],
      [
        "▁هزاران",
        -9.68280792236328
      ],
      [
        "▁الم",
        -9.683134078979492
      ],
      [
        "▁کارکنان",
        -9.684282302856444
      ],
      [
        "▁نمایند",
        -9.68483829498291
      ],
      [
        "▁محور",
        -9.685640335083008
      ],
      [
        "▁طبیعت",
        -9.68608570098877
      ],
      [
        "▁تکمیل",
        -9.686249732971191
      ],
      [
        "ری",
        -9.686376571655272
      ],
      [
        "باشند",
        -9.68642234802246
      ],
      [
        "▁ترانه",
        -9.687140464782717
      ],
      [
        "▁صادق",
        -9.687281608581545
      ],
      [
        "▁خ",
        -9.688119888305664
      ],
      [
        "▁کردی",
        -9.68821144104004
      ],
      [
        "▁منافع",
        -9.688355445861816
      ],
      [
        "▁هوشمند",
        -9.688514709472656
      ],
      [
        "▁آهنگ",
        -9.689220428466797
      ],
      [
        "▁شاد",
        -9.689414024353027
      ],
      [
        "▁کارخانه",
        -9.68941593170166
      ],
      [
        "▁اسپانیا",
        -9.689703941345217
      ],
      [
        "▁وز",
        -9.689988136291504
      ],
      [
        "▁بورس",
        -9.690030097961426
      ],
      [
        "▁صفر",
        -9.690584182739258
      ],
      [
        "▁تبریز",
        -9.691816329956056
      ],
      [
        "▁چی",
        -9.692584991455078
      ],
      [
        "▁احترام",
        -9.692728996276855
      ],
      [
        "▁دقت",
        -9.69325351715088
      ],
      [
        "▁نشسته",
        -9.693510055541992
      ],
      [
        "▁تعالی",
        -9.695056915283203
      ],
      [
        "▁طبقه",
        -9.695627212524414
      ],
      [
        "▁مستقل",
        -9.695812225341797
      ],
      [
        "▁گرچه",
        -9.697144508361816
      ],
      [
        "اب",
        -9.697372436523438
      ],
      [
        "▁تأکید",
        -9.698322296142578
      ],
      [
        "▁السلام",
        -9.699921607971191
      ],
      [
        "▁دعا",
        -9.700068473815918
      ],
      [
        "▁پنجم",
        -9.700778007507324
      ],
      [
        "زاده",
        -9.700835227966309
      ],
      [
        "▁خواهی",
        -9.701526641845703
      ],
      [
        "▁شاعر",
        -9.70168685913086
      ],
      [
        "▁بودیم",
        -9.702210426330566
      ],
      [
        "▁گرفتند",
        -9.703255653381348
      ],
      [
        "سر",
        -9.703369140625
      ],
      [
        "▁واشنگتن",
        -9.704269409179688
      ],
      [
        "▁درگیری",
        -9.704334259033203
      ],
      [
        "▁دیگه",
        -9.704828262329102
      ],
      [
        "▁بیشترین",
        -9.705101013183594
      ],
      [
        "▁تحویل",
        -9.70512866973877
      ],
      [
        "▁خواهم",
        -9.706979751586914
      ],
      [
        "▁فرزندان",
        -9.707279205322266
      ],
      [
        "▁دهنده",
        -9.707371711730955
      ],
      [
        "▁بغداد",
        -9.708269119262695
      ],
      [
        "▁ضرورت",
        -9.708572387695312
      ],
      [
        "▁آگاه",
        -9.709024429321287
      ],
      [
        "▁نگهبان",
        -9.709881782531738
      ],
      [
        "▁انفجار",
        -9.710186958312988
      ],
      [
        "▁ر",
        -9.71070957183838
      ],
      [
        "▁تئاتر",
        -9.711008071899414
      ],
      [
        "▁پدیده",
        -9.711813926696776
      ],
      [
        "▁کشید",
        -9.71233081817627
      ],
      [
        "▁ابتدای",
        -9.713106155395508
      ],
      [
        "▁تاج",
        -9.71677589416504
      ],
      [
        "▁سلطان",
        -9.717275619506836
      ],
      [
        "▁خودشان",
        -9.71743392944336
      ],
      [
        "▁تحقق",
        -9.717461585998535
      ],
      [
        "کس",
        -9.717470169067385
      ],
      [
        "▁فراوان",
        -9.717782020568848
      ],
      [
        "▁گردن",
        -9.718642234802246
      ],
      [
        "▁آیین",
        -9.720314979553224
      ],
      [
        "▁بازدید",
        -9.720903396606444
      ],
      [
        "▁جلوه",
        -9.721600532531738
      ],
      [
        "▁رهبران",
        -9.721830368041992
      ],
      [
        "▁مهندسی",
        -9.721916198730469
      ],
      [
        "▁هو",
        -9.721961975097656
      ],
      [
        "▁سالم",
        -9.722086906433104
      ],
      [
        "▁تروریستی",
        -9.723381996154783
      ],
      [
        "یا",
        -9.723966598510742
      ],
      [
        "اد",
        -9.724568367004396
      ],
      [
        "▁اروپایی",
        -9.726452827453612
      ],
      [
        "کم",
        -9.726984977722168
      ],
      [
        "▁مهمی",
        -9.729220390319824
      ],
      [
        "▁مجبور",
        -9.729452133178713
      ],
      [
        "▁پشتیبانی",
        -9.729643821716309
      ],
      [
        "وس",
        -9.72964859008789
      ],
      [
        "▁هشدار",
        -9.73106861114502
      ],
      [
        "▁مانع",
        -9.73165225982666
      ],
      [
        "▁گوهر",
        -9.731803894042969
      ],
      [
        "▁گویی",
        -9.732355117797852
      ],
      [
        "▁روحانی",
        -9.73236846923828
      ],
      [
        "▁قاضی",
        -9.73334503173828
      ],
      [
        "▁نگهداری",
        -9.733880043029783
      ],
      [
        "▁فرمانده",
        -9.734529495239258
      ],
      [
        "▁متوقف",
        -9.734617233276367
      ],
      [
        "▁فارغ",
        -9.734956741333008
      ],
      [
        "▁جامع",
        -9.735331535339355
      ],
      [
        "▁سرانجام",
        -9.73581314086914
      ],
      [
        "▁نیویورک",
        -9.735987663269045
      ],
      [
        "▁اوج",
        -9.736038208007812
      ],
      [
        "▁احداث",
        -9.736907958984377
      ],
      [
        "▁دهان",
        -9.73715591430664
      ],
      [
        "▁مکن",
        -9.737396240234377
      ],
      [
        "▁اگرچه",
        -9.737576484680176
      ],
      [
        "▁باشی",
        -9.73770236968994
      ],
      [
        "▁نوری",
        -9.737836837768556
      ],
      [
        "▁مدال",
        -9.738101959228516
      ],
      [
        "▁آلودگی",
        -9.73913288116455
      ],
      [
        "▁جدول",
        -9.739287376403809
      ],
      [
        "▁شوم",
        -9.740182876586914
      ],
      [
        "▁ضعف",
        -9.740267753601074
      ],
      [
        "▁یارانه",
        -9.74280834197998
      ],
      [
        "▁باشم",
        -9.743343353271484
      ],
      [
        "▁بدو",
        -9.743704795837402
      ],
      [
        "▁فرار",
        -9.744234085083008
      ],
      [
        "▁عظیم",
        -9.745891571044922
      ],
      [
        "▁خورده",
        -9.747897148132324
      ],
      [
        "▁بخت",
        -9.74889087677002
      ],
      [
        "▁نکرد",
        -9.74894905090332
      ],
      [
        "▁منتظر",
        -9.74986743927002
      ],
      [
        "▁چقدر",
        -9.7506103515625
      ],
      [
        "▁مهندس",
        -9.750962257385254
      ],
      [
        "▁تحصیلی",
        -9.751173973083496
      ],
      [
        "▁مردمی",
        -9.7530517578125
      ],
      [
        "▁آمادگی",
        -9.753602981567385
      ],
      [
        "▁راحت",
        -9.75416088104248
      ],
      [
        "▁ست",
        -9.754569053649902
      ],
      [
        "▁بنیاد",
        -9.754798889160156
      ],
      [
        "▁جلب",
        -9.755171775817873
      ],
      [
        "نه",
        -9.755816459655762
      ],
      [
        "▁پدید",
        -9.756173133850098
      ],
      [
        "▁سکه",
        -9.757057189941406
      ],
      [
        "▁سقوط",
        -9.75811767578125
      ],
      [
        "▁عادی",
        -9.759366989135742
      ],
      [
        "▁ناز",
        -9.759503364562988
      ],
      [
        "▁چشمه",
        -9.760103225708008
      ],
      [
        "▁شکایت",
        -9.760957717895508
      ],
      [
        "▁قرمز",
        -9.760967254638672
      ],
      [
        "▁مراحل",
        -9.760992050170898
      ],
      [
        "▁ایام",
        -9.761392593383787
      ],
      [
        "روند",
        -9.761834144592283
      ],
      [
        "خورد",
        -9.763317108154297
      ],
      [
        "توانیم",
        -9.763833045959473
      ],
      [
        "▁دروازه",
        -9.764506340026855
      ],
      [
        "▁ذخیره",
        -9.7677640914917
      ],
      [
        "▁صحیح",
        -9.768044471740724
      ],
      [
        "▁کمبود",
        -9.76859188079834
      ],
      [
        "▁گ",
        -9.769112586975098
      ],
      [
        "▁لاله",
        -9.769556045532228
      ],
      [
        "▁الان",
        -9.770092964172363
      ],
      [
        "▁بلا",
        -9.770415306091309
      ],
      [
        "▁تبلیغات",
        -9.770593643188477
      ],
      [
        "▁سربازان",
        -9.77108383178711
      ],
      [
        "▁تخصصی",
        -9.771270751953123
      ],
      [
        "▁برو",
        -9.771571159362791
      ],
      [
        "▁ارشاد",
        -9.77200412750244
      ],
      [
        "▁شیراز",
        -9.772235870361328
      ],
      [
        "▁لذت",
        -9.77457332611084
      ],
      [
        "▁بارها",
        -9.77488899230957
      ],
      [
        "▁موسسه",
        -9.775065422058104
      ],
      [
        "▁وجه",
        -9.775568962097168
      ],
      [
        "خواهم",
        -9.775761604309082
      ],
      [
        "▁خم",
        -9.77581787109375
      ],
      [
        "▁ملاقات",
        -9.775949478149414
      ],
      [
        "▁بنزین",
        -9.776044845581056
      ],
      [
        "▁پروانه",
        -9.777130126953123
      ],
      [
        "▁ساختن",
        -9.777398109436035
      ],
      [
        "▁ترس",
        -9.777791023254396
      ],
      [
        "▁ضروری",
        -9.778611183166504
      ],
      [
        "▁درمانی",
        -9.77963924407959
      ],
      [
        "▁گزینه",
        -9.780226707458496
      ],
      [
        "▁خلیج",
        -9.780315399169922
      ],
      [
        "▁کیلوگرم",
        -9.78048324584961
      ],
      [
        "▁مطالب",
        -9.781481742858888
      ],
      [
        "▁شرایطی",
        -9.782037734985352
      ],
      [
        "▁راحتی",
        -9.782438278198242
      ],
      [
        "▁مثلا",
        -9.782663345336914
      ],
      [
        "▁قد",
        -9.783156394958496
      ],
      [
        "▁آینه",
        -9.783867835998535
      ],
      [
        "▁جنسی",
        -9.784229278564451
      ],
      [
        "▁کارگردان",
        -9.784306526184082
      ],
      [
        "▁شناخت",
        -9.785174369812012
      ],
      [
        "▁حفاظت",
        -9.785869598388672
      ],
      [
        "▁میراث",
        -9.785879135131836
      ],
      [
        "▁ح",
        -9.785896301269531
      ],
      [
        "▁خروج",
        -9.785961151123049
      ],
      [
        "▁نفتی",
        -9.786203384399414
      ],
      [
        "▁معمولا",
        -9.786535263061523
      ],
      [
        "▁بانکی",
        -9.787917137145996
      ],
      [
        "▁الف",
        -9.788198471069336
      ],
      [
        "▁دیر",
        -9.788567543029783
      ],
      [
        "▁سالن",
        -9.788905143737791
      ],
      [
        "▁گوناگون",
        -9.789525032043455
      ],
      [
        "▁پنجشنبه",
        -9.789692878723145
      ],
      [
        "ریزی",
        -9.79063606262207
      ],
      [
        "▁مشهور",
        -9.791176795959473
      ],
      [
        "▁میلاد",
        -9.791645050048828
      ],
      [
        "▁کاش",
        -9.792224884033203
      ],
      [
        "▁سختی",
        -9.792765617370604
      ],
      [
        "▁آذر",
        -9.792808532714844
      ],
      [
        "▁استرالیا",
        -9.79286766052246
      ],
      [
        "▁آوری",
        -9.794177055358888
      ],
      [
        "▁سرباز",
        -9.795248031616213
      ],
      [
        "▁سالانه",
        -9.796019554138184
      ],
      [
        "▁ضربه",
        -9.796226501464844
      ],
      [
        "▁آ",
        -9.79694652557373
      ],
      [
        "▁سالگی",
        -9.797438621520996
      ],
      [
        "▁تلخ",
        -9.797468185424805
      ],
      [
        "▁یاری",
        -9.797499656677246
      ],
      [
        "▁تخریب",
        -9.797654151916504
      ],
      [
        "▁سرطان",
        -9.797876358032228
      ],
      [
        "▁رودخانه",
        -9.798093795776367
      ],
      [
        "▁چپ",
        -9.79847526550293
      ],
      [
        "▁بردن",
        -9.79851245880127
      ],
      [
        "این",
        -9.79873275756836
      ],
      [
        "▁سعید",
        -9.799309730529783
      ],
      [
        "▁نفوذ",
        -9.79940700531006
      ],
      [
        "▁محترم",
        -9.79975414276123
      ],
      [
        "▁آلمانی",
        -9.80049991607666
      ],
      [
        "▁فتح",
        -9.800731658935549
      ],
      [
        "▁امروزه",
        -9.801104545593262
      ],
      [
        "▁چراغ",
        -9.80124282836914
      ],
      [
        "▁روایت",
        -9.801271438598633
      ],
      [
        "▁سحر",
        -9.80177879333496
      ],
      [
        "چه",
        -9.801989555358888
      ],
      [
        "▁تمرین",
        -9.802499771118164
      ],
      [
        "▁هماهنگی",
        -9.802770614624023
      ],
      [
        "▁فرود",
        -9.80336570739746
      ],
      [
        "▁کمپانی",
        -9.804677963256836
      ],
      [
        "▁ابراهیم",
        -9.804930686950684
      ],
      [
        "▁محدودیت",
        -9.80541706085205
      ],
      [
        "▁مجدد",
        -9.806374549865724
      ],
      [
        "▁سینمایی",
        -9.806405067443848
      ],
      [
        "▁انگیزه",
        -9.807199478149414
      ],
      [
        "▁روانی",
        -9.807852745056152
      ],
      [
        "▁عراقی",
        -9.808938026428224
      ],
      [
        "▁مجوز",
        -9.809039115905762
      ],
      [
        "▁مدعی",
        -9.80920124053955
      ],
      [
        "▁قطعه",
        -9.809579849243164
      ],
      [
        "▁اصلاحات",
        -9.809940338134766
      ],
      [
        "▁موشک",
        -9.810136795043944
      ],
      [
        "▁هواپیما",
        -9.810300827026367
      ],
      [
        "▁مسلح",
        -9.81064224243164
      ],
      [
        "▁شهردار",
        -9.811246871948242
      ],
      [
        "▁چینی",
        -9.812195777893066
      ],
      [
        "▁طوری",
        -9.812980651855469
      ],
      [
        "▁وقوع",
        -9.813106536865234
      ],
      [
        "▁پیرامون",
        -9.813639640808104
      ],
      [
        "▁فرانسوی",
        -9.815055847167969
      ],
      [
        "▁هرچند",
        -9.815088272094728
      ],
      [
        "کشد",
        -9.817926406860352
      ],
      [
        "▁آمدن",
        -9.818632125854492
      ],
      [
        "▁کرم",
        -9.818658828735352
      ],
      [
        "▁ششم",
        -9.818669319152832
      ],
      [
        "▁+",
        -9.818717002868652
      ],
      [
        "▁گوشت",
        -9.81977653503418
      ],
      [
        "▁بازرگانی",
        -9.820323944091797
      ],
      [
        "▁همت",
        -9.820462226867676
      ],
      [
        "رفت",
        -9.820660591125488
      ],
      [
        "سازد",
        -9.82086944580078
      ],
      [
        "▁اظهارات",
        -9.820899963378906
      ],
      [
        "▁نظریه",
        -9.821121215820312
      ],
      [
        "▁تجهیزات",
        -9.822068214416504
      ],
      [
        "▁توجهی",
        -9.822157859802246
      ],
      [
        "▁دیوان",
        -9.82248306274414
      ],
      [
        "▁روغن",
        -9.82344913482666
      ],
      [
        "▁توصیف",
        -9.823524475097656
      ],
      [
        "▁خاورمیانه",
        -9.824646949768066
      ],
      [
        "▁شه",
        -9.824649810791016
      ],
      [
        "▁متری",
        -9.824707984924316
      ],
      [
        "▁شکسته",
        -9.825172424316406
      ],
      [
        "▁هتل",
        -9.825566291809082
      ],
      [
        "▁عید",
        -9.826244354248049
      ],
      [
        "▁نعمت",
        -9.826397895812988
      ],
      [
        "بار",
        -9.826796531677246
      ],
      [
        "جا",
        -9.82693099975586
      ],
      [
        "▁ورزشگاه",
        -9.827521324157717
      ],
      [
        "▁وصل",
        -9.827800750732422
      ],
      [
        "▁نشانی",
        -9.828600883483888
      ],
      [
        "▁مرداد",
        -9.828903198242188
      ],
      [
        "▁هی",
        -9.82970905303955
      ],
      [
        "رد",
        -9.829873085021973
      ],
      [
        "▁مطالعات",
        -9.830329895019531
      ],
      [
        "▁محبت",
        -9.83052921295166
      ],
      [
        "▁پاره",
        -9.830866813659668
      ],
      [
        "▁سینمای",
        -9.830972671508787
      ],
      [
        "▁نگران",
        -9.831192016601562
      ],
      [
        "▁اواخر",
        -9.831242561340332
      ],
      [
        "▁فر",
        -9.833322525024414
      ],
      [
        "▁موسی",
        -9.833462715148926
      ],
      [
        "▁یادآور",
        -9.834378242492676
      ],
      [
        "▁اوایل",
        -9.834465980529783
      ],
      [
        "▁برج",
        -9.834505081176758
      ],
      [
        "▁مد",
        -9.83455753326416
      ],
      [
        "▁پیمان",
        -9.835243225097656
      ],
      [
        "▁برود",
        -9.835474014282228
      ],
      [
        "▁موتور",
        -9.835945129394531
      ],
      [
        "▁موافقت",
        -9.83652687072754
      ],
      [
        "▁کانادا",
        -9.836617469787598
      ],
      [
        "▁بماند",
        -9.836886405944824
      ],
      [
        "▁ناله",
        -9.83739185333252
      ],
      [
        "▁ارز",
        -9.837846755981444
      ],
      [
        "▁یوسف",
        -9.838003158569336
      ],
      [
        "▁اداری",
        -9.83825969696045
      ],
      [
        "نگ",
        -9.838838577270508
      ],
      [
        "یل",
        -9.838933944702148
      ],
      [
        "▁پیشین",
        -9.839940071105955
      ],
      [
        "▁مفید",
        -9.84028148651123
      ],
      [
        "▁گناه",
        -9.841562271118164
      ],
      [
        "▁متعلق",
        -9.841858863830566
      ],
      [
        "▁دانلود",
        -9.842850685119627
      ],
      [
        "▁حج",
        -9.843008995056152
      ],
      [
        "پور",
        -9.84326171875
      ],
      [
        "▁درین",
        -9.844051361083984
      ],
      [
        "▁روبه",
        -9.844849586486816
      ],
      [
        "▁هرگونه",
        -9.84503936767578
      ],
      [
        "یر",
        -9.845409393310549
      ],
      [
        "▁غنی",
        -9.84559726715088
      ],
      [
        "▁تدوین",
        -9.845621109008787
      ],
      [
        "▁خار",
        -9.847664833068848
      ],
      [
        "▁انگلستان",
        -9.848875045776367
      ],
      [
        "▁جزو",
        -9.849584579467772
      ],
      [
        "▁دروغ",
        -9.84995174407959
      ],
      [
        "▁تابستان",
        -9.85002326965332
      ],
      [
        "▁سوار",
        -9.850435256958008
      ],
      [
        "▁دهیم",
        -9.850502967834473
      ],
      [
        "▁عملی",
        -9.851304054260254
      ],
      [
        "▁پادشاه",
        -9.851360321044922
      ],
      [
        "ره",
        -9.851719856262209
      ],
      [
        "▁کشت",
        -9.851787567138672
      ],
      [
        "اء",
        -9.85196018218994
      ],
      [
        "▁آژانس",
        -9.85226821899414
      ],
      [
        "▁تاب",
        -9.852420806884766
      ],
      [
        "▁صهیونیستی",
        -9.85250473022461
      ],
      [
        "▁شوق",
        -9.853021621704102
      ],
      [
        "▁امریکا",
        -9.853577613830566
      ],
      [
        "کنی",
        -9.856304168701172
      ],
      [
        "▁دستی",
        -9.85642433166504
      ],
      [
        "▁فرمود",
        -9.856690406799316
      ],
      [
        "▁دانه",
        -9.856974601745604
      ],
      [
        "▁میگوید",
        -9.85702419281006
      ],
      [
        "▁بگیرند",
        -9.857070922851562
      ],
      [
        "▁وسایل",
        -9.858184814453123
      ],
      [
        "برند",
        -9.859448432922363
      ],
      [
        "▁برمی",
        -9.859548568725586
      ],
      [
        "▁منم",
        -9.8599214553833
      ],
      [
        "▁سلول",
        -9.860595703125
      ],
      [
        "▁اتوبوس",
        -9.860723495483398
      ],
      [
        "▁اصلا",
        -9.86141872406006
      ],
      [
        "▁روزها",
        -9.861767768859863
      ],
      [
        "زد",
        -9.861812591552734
      ],
      [
        "ماند",
        -9.862174034118652
      ],
      [
        "▁بحر",
        -9.862953186035156
      ],
      [
        "▁اردیبهشت",
        -9.863470077514648
      ],
      [
        "▁رساند",
        -9.86398983001709
      ],
      [
        "▁رمضان",
        -9.864126205444336
      ],
      [
        "▁اشتغال",
        -9.86419677734375
      ],
      [
        "▁ظرف",
        -9.864256858825684
      ],
      [
        "▁شیعه",
        -9.86436653137207
      ],
      [
        "▁جی",
        -9.864623069763184
      ],
      [
        "▁آموزان",
        -9.865154266357422
      ],
      [
        "▁ارتباطات",
        -9.866893768310549
      ],
      [
        "▁مرده",
        -9.867074966430664
      ],
      [
        "▁فساد",
        -9.86777114868164
      ],
      [
        "▁نظرات",
        -9.867921829223633
      ],
      [
        "▁رادیو",
        -9.868192672729492
      ],
      [
        "▁تحمل",
        -9.868494033813477
      ],
      [
        "▁پیوند",
        -9.86984634399414
      ],
      [
        "▁کالا",
        -9.87004566192627
      ],
      [
        "▁ضعیف",
        -9.871657371520996
      ],
      [
        "▁وظایف",
        -9.871767044067385
      ],
      [
        "▁کشوری",
        -9.872215270996094
      ],
      [
        "▁دانشکده",
        -9.87234115600586
      ],
      [
        "▁جوانی",
        -9.872929573059082
      ],
      [
        "▁مختلفی",
        -9.87313461303711
      ],
      [
        "▁میکند",
        -9.874445915222168
      ],
      [
        "▁بهانه",
        -9.87450885772705
      ],
      [
        "▁مربع",
        -9.87478733062744
      ],
      [
        "▁دراین",
        -9.875337600708008
      ],
      [
        "▁فرش",
        -9.876317977905272
      ],
      [
        "▁ادعا",
        -9.877640724182127
      ],
      [
        "▁کین",
        -9.877785682678224
      ],
      [
        "▁برجسته",
        -9.87828540802002
      ],
      [
        "▁باب",
        -9.87867546081543
      ],
      [
        "▁چک",
        -9.880857467651367
      ],
      [
        "▁شهرک",
        -9.881263732910156
      ],
      [
        "▁بیدار",
        -9.8812894821167
      ],
      [
        "▁کنگره",
        -9.882771492004396
      ],
      [
        "▁آشکار",
        -9.882844924926758
      ],
      [
        "▁بست",
        -9.883464813232422
      ],
      [
        "▁مبتلا",
        -9.883559226989746
      ],
      [
        "▁پهلوی",
        -9.88377285003662
      ],
      [
        "ائی",
        -9.885010719299316
      ],
      [
        "نماید",
        -9.885685920715332
      ],
      [
        "▁تأثیر",
        -9.886262893676758
      ],
      [
        "روی",
        -9.887152671813965
      ],
      [
        "▁کلمه",
        -9.887406349182127
      ],
      [
        "▁آواز",
        -9.887911796569824
      ],
      [
        "▁بدهد",
        -9.888296127319336
      ],
      [
        "▁تخم",
        -9.888593673706056
      ],
      [
        "▁اتهام",
        -9.889326095581056
      ],
      [
        "▁آشنایی",
        -9.889328002929688
      ],
      [
        "▁تورم",
        -9.89006233215332
      ],
      [
        "▁تولد",
        -9.890268325805664
      ],
      [
        "▁لیست",
        -9.890687942504885
      ],
      [
        "▁غزه",
        -9.8915376663208
      ],
      [
        "▁زرد",
        -9.891719818115234
      ],
      [
        "▁کفش",
        -9.891966819763184
      ],
      [
        "▁رأی",
        -9.892156600952148
      ],
      [
        "▁حتما",
        -9.892539024353027
      ],
      [
        "داری",
        -9.893129348754885
      ],
      [
        "▁فراوانی",
        -9.894054412841797
      ],
      [
        "▁شاخه",
        -9.894444465637209
      ],
      [
        "▁اخلاقی",
        -9.894710540771484
      ],
      [
        "▁کنکور",
        -9.894795417785645
      ],
      [
        "▁باده",
        -9.894798278808594
      ],
      [
        "▁اینترنتی",
        -9.89497184753418
      ],
      [
        "▁معلوم",
        -9.896377563476562
      ],
      [
        "▁غزل",
        -9.896658897399902
      ],
      [
        "▁گمان",
        -9.897765159606934
      ],
      [
        "▁کانون",
        -9.898476600646973
      ],
      [
        "▁مشاوره",
        -9.898831367492676
      ],
      [
        "▁بقیه",
        -9.900213241577148
      ],
      [
        "▁تأمین",
        -9.900504112243652
      ],
      [
        "▁واردات",
        -9.902318954467772
      ],
      [
        "▁پزشک",
        -9.902684211730955
      ],
      [
        "▁اعزام",
        -9.902997970581056
      ],
      [
        "▁فضا",
        -9.90325927734375
      ],
      [
        "▁روبرو",
        -9.903465270996094
      ],
      [
        "▁دوستی",
        -9.903607368469238
      ],
      [
        "▁محسن",
        -9.904032707214355
      ],
      [
        "▁نقشه",
        -9.904936790466309
      ],
      [
        "▁تقریبا",
        -9.905115127563477
      ],
      [
        "▁سعودی",
        -9.90548610687256
      ],
      [
        "▁عجیب",
        -9.907541275024414
      ],
      [
        "▁معماری",
        -9.907569885253906
      ],
      [
        "▁سیما",
        -9.908153533935549
      ],
      [
        "▁اجلاس",
        -9.908305168151855
      ],
      [
        "▁دیوانه",
        -9.908772468566896
      ],
      [
        "▁دوش",
        -9.909042358398438
      ],
      [
        "▁خسرو",
        -9.90916633605957
      ],
      [
        "▁جهاد",
        -9.910321235656738
      ],
      [
        "▁الن",
        -9.912041664123535
      ],
      [
        "▁نیازمند",
        -9.913182258605955
      ],
      [
        "▁نگاهی",
        -9.91359806060791
      ],
      [
        "▁عبدالله",
        -9.915567398071287
      ],
      [
        "▁رضایت",
        -9.915573120117188
      ],
      [
        "▁توابع",
        -9.915599822998049
      ],
      [
        "▁جلو",
        -9.915842056274414
      ],
      [
        "▁مناسبت",
        -9.916563987731934
      ],
      [
        "▁آوردن",
        -9.91722011566162
      ],
      [
        "▁بتوانند",
        -9.917543411254885
      ],
      [
        "▁آسان",
        -9.917731285095217
      ],
      [
        "گونه",
        -9.91920280456543
      ],
      [
        "▁الس",
        -9.919940948486328
      ],
      [
        "▁تقدیر",
        -9.92095947265625
      ],
      [
        "▁فکری",
        -9.921083450317385
      ],
      [
        "▁مجازی",
        -9.921113014221191
      ],
      [
        "▁استاندارد",
        -9.921257972717283
      ],
      [
        "▁گره",
        -9.921287536621094
      ],
      [
        "▁سپتامبر",
        -9.92286777496338
      ],
      [
        "▁انتخاباتی",
        -9.923133850097656
      ],
      [
        "▁اف",
        -9.923140525817873
      ],
      [
        "▁خطاب",
        -9.923471450805664
      ],
      [
        "▁حداکثر",
        -9.923999786376951
      ],
      [
        "▁موضع",
        -9.924201965332031
      ],
      [
        "▁شغل",
        -9.926093101501465
      ],
      [
        "▁موش",
        -9.926149368286133
      ],
      [
        "▁شام",
        -9.92621612548828
      ],
      [
        "جی",
        -9.926371574401855
      ],
      [
        "فر",
        -9.926512718200684
      ],
      [
        "▁توپ",
        -9.927122116088867
      ],
      [
        "▁پیوسته",
        -9.927329063415527
      ],
      [
        "▁معادل",
        -9.928053855895996
      ],
      [
        "▁رحمت",
        -9.928131103515623
      ],
      [
        "▁یافتن",
        -9.928267478942873
      ],
      [
        "▁عوض",
        -9.92839527130127
      ],
      [
        "▁بافت",
        -9.928476333618164
      ],
      [
        "▁مقررات",
        -9.928589820861816
      ],
      [
        "▁نامزد",
        -9.928744316101074
      ],
      [
        "▁متولد",
        -9.929845809936523
      ],
      [
        "▁میانه",
        -9.929939270019531
      ],
      [
        "▁شرط",
        -9.930315971374512
      ],
      [
        "▁فقر",
        -9.931203842163086
      ],
      [
        "▁مخصوص",
        -9.931442260742188
      ],
      [
        "▁عهد",
        -9.931622505187988
      ],
      [
        "▁اسب",
        -9.932098388671877
      ],
      [
        "▁هنرمندان",
        -9.932924270629885
      ],
      [
        "▁حرم",
        -9.93302059173584
      ],
      [
        "▁رایگان",
        -9.933379173278809
      ],
      [
        "▁ایرانیان",
        -9.93360424041748
      ],
      [
        "آیند",
        -9.934146881103516
      ],
      [
        "▁اطمینان",
        -9.934167861938477
      ],
      [
        "▁تسهیلات",
        -9.934264183044434
      ],
      [
        "▁تأسیس",
        -9.934536933898926
      ],
      [
        "▁مدیرعامل",
        -9.936477661132812
      ],
      [
        "▁جنس",
        -9.937463760375977
      ],
      [
        "دارد",
        -9.9378662109375
      ],
      [
        "▁محمدرضا",
        -9.93857479095459
      ],
      [
        "▁اکبر",
        -9.939358711242676
      ],
      [
        "▁بازسازی",
        -9.939505577087402
      ],
      [
        "▁تی",
        -9.939820289611816
      ],
      [
        "▁برقرار",
        -9.940192222595217
      ],
      [
        "▁اوضاع",
        -9.940682411193848
      ],
      [
        "▁مخدر",
        -9.940978050231934
      ],
      [
        "▁کیلومتری",
        -9.94134521484375
      ],
      [
        "▁محله",
        -9.941709518432615
      ],
      [
        "▁مشاور",
        -9.942452430725098
      ],
      [
        "▁خوانده",
        -9.942654609680176
      ],
      [
        "▁اندازی",
        -9.943197250366213
      ],
      [
        "▁تویی",
        -9.943634033203123
      ],
      [
        "▁راستای",
        -9.943682670593262
      ],
      [
        "آمد",
        -9.94457721710205
      ],
      [
        "▁آمیز",
        -9.94509220123291
      ],
      [
        "▁لشکر",
        -9.945356369018556
      ],
      [
        "▁اسناد",
        -9.945536613464355
      ],
      [
        "گذارد",
        -9.94679832458496
      ],
      [
        "▁کریم",
        -9.947285652160645
      ],
      [
        "▁کارگران",
        -9.94790267944336
      ],
      [
        "▁ابزار",
        -9.948559761047363
      ],
      [
        "دو",
        -9.948610305786133
      ],
      [
        "▁داشتم",
        -9.949311256408691
      ],
      [
        "مون",
        -9.949599266052246
      ],
      [
        "▁پلی",
        -9.950221061706545
      ],
      [
        "▁مصطفی",
        -9.950679779052734
      ],
      [
        "▁گنج",
        -9.951421737670898
      ],
      [
        "▁حجاب",
        -9.95201587677002
      ],
      [
        "▁هفتم",
        -9.952333450317385
      ],
      [
        "▁جنگل",
        -9.952716827392578
      ],
      [
        "▁زمینی",
        -9.953241348266602
      ],
      [
        "▁شوید",
        -9.95427417755127
      ],
      [
        "▁آری",
        -9.954758644104004
      ],
      [
        "گو",
        -9.955122947692873
      ],
      [
        "▁بت",
        -9.956207275390623
      ],
      [
        "▁چارچوب",
        -9.957849502563477
      ],
      [
        "▁گلستان",
        -9.958151817321776
      ],
      [
        "▁ثانیه",
        -9.958535194396973
      ],
      [
        "▁شهریور",
        -9.958969116210938
      ],
      [
        "▁سیب",
        -9.95900535583496
      ],
      [
        "▁سرنوشت",
        -9.96003246307373
      ],
      [
        "▁عجب",
        -9.9600830078125
      ],
      [
        "▁بگویم",
        -9.96047019958496
      ],
      [
        "▁مجازات",
        -9.961443901062012
      ],
      [
        "▁سد",
        -9.96183967590332
      ],
      [
        "▁پرداخته",
        -9.963061332702637
      ],
      [
        "▁بیماران",
        -9.963244438171388
      ],
      [
        "▁بسی",
        -9.96412467956543
      ],
      [
        "▁تار",
        -9.964208602905272
      ],
      [
        "▁موضوعات",
        -9.964677810668944
      ],
      [
        "▁واحدهای",
        -9.9647798538208
      ],
      [
        "▁رسم",
        -9.964868545532228
      ],
      [
        "▁فاطمه",
        -9.965218544006348
      ],
      [
        "دان",
        -9.965412139892578
      ],
      [
        "▁مار",
        -9.96643352508545
      ],
      [
        "▁گذر",
        -9.96757698059082
      ],
      [
        "▁شراب",
        -9.969202041625977
      ],
      [
        "▁معاونت",
        -9.97012424468994
      ],
      [
        "▁مدرن",
        -9.970908164978027
      ],
      [
        "▁میل",
        -9.971184730529783
      ],
      [
        "▁بگیرید",
        -9.971637725830078
      ],
      [
        "▁٪",
        -9.972700119018556
      ],
      [
        "▁سامانه",
        -9.974889755249023
      ],
      [
        "خانه",
        -9.974953651428224
      ],
      [
        "▁طالبان",
        -9.97544765472412
      ],
      [
        "▁خام",
        -9.975838661193848
      ],
      [
        "▁ببین",
        -9.976323127746582
      ],
      [
        "چ",
        -9.976603507995604
      ],
      [
        "▁پیچیده",
        -9.977383613586426
      ],
      [
        "▁امضا",
        -9.97744369506836
      ],
      [
        "▁حکایت",
        -9.977519989013672
      ],
      [
        "▁چمن",
        -9.977617263793944
      ],
      [
        "▁هشتم",
        -9.978294372558594
      ],
      [
        "▁درگذشت",
        -9.978300094604492
      ],
      [
        "▁احتمالا",
        -9.97866153717041
      ],
      [
        "▁افتخار",
        -9.978873252868652
      ],
      [
        "▁جوی",
        -9.97950839996338
      ],
      [
        "▁موقع",
        -9.979825973510742
      ],
      [
        "▁سند",
        -9.98096752166748
      ],
      [
        "▁خشم",
        -9.981423377990724
      ],
      [
        "▁ایمنی",
        -9.981561660766602
      ],
      [
        "▁توی",
        -9.981622695922852
      ],
      [
        "▁برف",
        -9.982016563415527
      ],
      [
        "▁شبه",
        -9.982060432434082
      ],
      [
        "▁ابعاد",
        -9.982192039489746
      ],
      [
        "مو",
        -9.983256340026855
      ],
      [
        "▁فلسفه",
        -9.983426094055176
      ],
      [
        "اک",
        -9.984097480773926
      ],
      [
        "▁خویشتن",
        -9.98526382446289
      ],
      [
        "▁هویت",
        -9.985984802246094
      ],
      [
        "▁یقین",
        -9.986026763916016
      ],
      [
        "▁لو",
        -9.98681926727295
      ],
      [
        "▁سرمربی",
        -9.987954139709473
      ],
      [
        "▁اولویت",
        -9.988292694091797
      ],
      [
        "▁تان",
        -9.988799095153809
      ],
      [
        "▁شعار",
        -9.989075660705566
      ],
      [
        "▁نیرو",
        -9.989155769348145
      ],
      [
        "▁پاریس",
        -9.98920440673828
      ],
      [
        "▁آیه",
        -9.989639282226562
      ],
      [
        "▁شورا",
        -9.991186141967772
      ],
      [
        "▁کرمانشاه",
        -9.992003440856934
      ],
      [
        "▁معرض",
        -9.99218463897705
      ],
      [
        "▁حسینی",
        -9.99288558959961
      ],
      [
        "▁الاسلام",
        -9.992904663085938
      ],
      [
        "▁پرزیدنت",
        -9.99302101135254
      ],
      [
        "▁خاموش",
        -9.993281364440918
      ],
      [
        "▁دانشمندان",
        -9.994498252868652
      ],
      [
        "▁بلوک",
        -9.995265007019045
      ],
      [
        "▁گفتن",
        -9.996339797973633
      ],
      [
        "▁خواهید",
        -9.996532440185549
      ],
      [
        "▁گوگل",
        -9.996671676635742
      ],
      [
        "▁احزاب",
        -9.997127532958984
      ],
      [
        "▁نداریم",
        -9.997153282165527
      ],
      [
        "▁محبوب",
        -9.999029159545898
      ],
      [
        "▁بوسه",
        -9.999584197998049
      ],
      [
        "▁آر",
        -9.999842643737791
      ],
      [
        "▁چاره",
        -10.00032901763916
      ],
      [
        "گذرد",
        -10.002290725708008
      ],
      [
        "▁هوش",
        -10.002374649047852
      ],
      [
        "▁نشر",
        -10.002387046813965
      ],
      [
        "▁فضایی",
        -10.003003120422363
      ],
      [
        "▁مفهوم",
        -10.003493309020996
      ],
      [
        "گه",
        -10.003803253173828
      ],
      [
        "▁حدیث",
        -10.004148483276367
      ],
      [
        "▁جایگزین",
        -10.004158020019531
      ],
      [
        "▁دراز",
        -10.004347801208496
      ],
      [
        "▁تب",
        -10.00499439239502
      ],
      [
        "▁شیمیایی",
        -10.005220413208008
      ],
      [
        "سال",
        -10.005370140075684
      ],
      [
        "▁جمال",
        -10.005643844604492
      ],
      [
        "▁عادت",
        -10.006028175354004
      ],
      [
        "▁ائتلاف",
        -10.006063461303713
      ],
      [
        "▁سازنده",
        -10.006186485290527
      ],
      [
        "ستان",
        -10.006576538085938
      ],
      [
        "▁شناسی",
        -10.006752967834473
      ],
      [
        "▁رئال",
        -10.007625579833984
      ],
      [
        "دل",
        -10.00814437866211
      ],
      [
        "▁ذات",
        -10.009005546569824
      ],
      [
        "▁گردیده",
        -10.009111404418944
      ],
      [
        "▁چاه",
        -10.009441375732422
      ],
      [
        "▁دارو",
        -10.01011848449707
      ],
      [
        "▁شوی",
        -10.01060390472412
      ],
      [
        "▁خودروهای",
        -10.011804580688477
      ],
      [
        "▁دختران",
        -10.01206398010254
      ],
      [
        "▁قطره",
        -10.012255668640137
      ],
      [
        "▁فروردین",
        -10.012897491455078
      ],
      [
        "▁چالش",
        -10.01296043395996
      ],
      [
        "▁بالایی",
        -10.013147354125977
      ],
      [
        "افتد",
        -10.013469696044922
      ],
      [
        "▁دانشجویی",
        -10.014959335327148
      ],
      [
        "▁تخفیف",
        -10.015135765075684
      ],
      [
        "▁کرمان",
        -10.015310287475586
      ],
      [
        "▁اپل",
        -10.01538372039795
      ],
      [
        "▁درگیر",
        -10.016069412231444
      ],
      [
        "▁تاسیس",
        -10.016173362731934
      ],
      [
        "▁گیاه",
        -10.01927089691162
      ],
      [
        "▁واسطه",
        -10.019856452941896
      ],
      [
        "▁تفسیر",
        -10.0213041305542
      ],
      [
        "▁تفکر",
        -10.021321296691896
      ],
      [
        "▁خواندن",
        -10.022557258605955
      ],
      [
        "▁محروم",
        -10.02267360687256
      ],
      [
        "▁آرد",
        -10.02294921875
      ],
      [
        "▁زمستان",
        -10.02304744720459
      ],
      [
        "▁اینگونه",
        -10.023714065551758
      ],
      [
        "▁پایانی",
        -10.023737907409668
      ],
      [
        "▁تشویق",
        -10.024028778076172
      ],
      [
        "▁سقف",
        -10.024032592773438
      ],
      [
        "▁مناسبی",
        -10.024205207824709
      ],
      [
        "▁اخلاق",
        -10.025089263916016
      ],
      [
        "▁موی",
        -10.026171684265137
      ],
      [
        "چی",
        -10.026318550109863
      ],
      [
        "▁خاطره",
        -10.02634334564209
      ],
      [
        "▁جسم",
        -10.026755332946776
      ],
      [
        "▁پذیرفته",
        -10.0269136428833
      ],
      [
        "▁پیشرفته",
        -10.027644157409668
      ],
      [
        "▁جلوی",
        -10.028740882873535
      ],
      [
        "▁نیازهای",
        -10.029882431030272
      ],
      [
        "▁پنجره",
        -10.030072212219238
      ],
      [
        "▁مجله",
        -10.03310203552246
      ],
      [
        "دا",
        -10.033174514770508
      ],
      [
        "▁دخالت",
        -10.03318691253662
      ],
      [
        "▁خوزستان",
        -10.033893585205078
      ],
      [
        "▁شوروی",
        -10.035000801086426
      ],
      [
        "▁کتابخانه",
        -10.035248756408691
      ],
      [
        "▁اسفند",
        -10.036511421203612
      ],
      [
        "نده",
        -10.038066864013672
      ],
      [
        "▁سومین",
        -10.039175987243652
      ],
      [
        "▁ساکن",
        -10.03974723815918
      ],
      [
        "▁کش",
        -10.03982162475586
      ],
      [
        "▁اثبات",
        -10.040902137756348
      ],
      [
        "▁گفتار",
        -10.04124641418457
      ],
      [
        "▁شعله",
        -10.041495323181152
      ],
      [
        "▁سازد",
        -10.04233169555664
      ],
      [
        "کا",
        -10.0426025390625
      ],
      [
        "▁عمیق",
        -10.04321002960205
      ],
      [
        "له",
        -10.04323387145996
      ],
      [
        "▁ساحل",
        -10.043683052062988
      ],
      [
        "▁شنیده",
        -10.044734954833984
      ],
      [
        "▁جور",
        -10.045218467712402
      ],
      [
        "▁قوت",
        -10.04599666595459
      ],
      [
        "▁نهان",
        -10.046340942382812
      ],
      [
        "▁جگر",
        -10.04679012298584
      ],
      [
        "نت",
        -10.047442436218262
      ],
      [
        "▁جنبه",
        -10.047542572021484
      ],
      [
        "▁وفا",
        -10.047718048095703
      ],
      [
        "▁پناه",
        -10.048653602600098
      ],
      [
        "▁کاربرد",
        -10.049022674560549
      ],
      [
        "▁غرق",
        -10.04941177368164
      ],
      [
        "▁کلام",
        -10.04952621459961
      ],
      [
        "▁مس",
        -10.049660682678224
      ],
      [
        "▁بهداشتی",
        -10.049860954284668
      ],
      [
        "▁اوقات",
        -10.05050277709961
      ],
      [
        "▁کودکی",
        -10.051263809204102
      ],
      [
        "▁فولاد",
        -10.051553726196287
      ],
      [
        "▁مطلوب",
        -10.05179500579834
      ],
      [
        "▁سیل",
        -10.052692413330078
      ],
      [
        "▁مدار",
        -10.0527925491333
      ],
      [
        "▁کمر",
        -10.053882598876951
      ],
      [
        "▁برزیل",
        -10.054173469543455
      ],
      [
        "▁خریداری",
        -10.054706573486328
      ],
      [
        "▁آبان",
        -10.054728507995604
      ],
      [
        "▁آلوده",
        -10.055042266845703
      ],
      [
        "▁اندکی",
        -10.055327415466309
      ],
      [
        "▁پارس",
        -10.055462837219238
      ],
      [
        "▁ساقی",
        -10.05576229095459
      ],
      [
        "▁طبع",
        -10.056408882141112
      ],
      [
        "▁قطر",
        -10.05644702911377
      ],
      [
        "▁سراغ",
        -10.056546211242676
      ],
      [
        "▁حسرت",
        -10.057048797607422
      ],
      [
        "▁حساس",
        -10.057138442993164
      ],
      [
        "▁موقت",
        -10.057500839233398
      ],
      [
        "▁خطوط",
        -10.057867050170898
      ],
      [
        "▁نهادهای",
        -10.058011054992676
      ],
      [
        "▁ری",
        -10.05803108215332
      ],
      [
        "هاست",
        -10.05862045288086
      ],
      [
        "▁نفع",
        -10.059435844421388
      ],
      [
        "▁تمرکز",
        -10.059460639953612
      ],
      [
        "▁قدس",
        -10.059477806091309
      ],
      [
        "▁میشود",
        -10.061955451965332
      ],
      [
        "مه",
        -10.062702178955078
      ],
      [
        "▁مسایل",
        -10.062738418579102
      ],
      [
        "▁لغو",
        -10.063400268554688
      ],
      [
        "▁میر",
        -10.064126014709473
      ],
      [
        "▁انگشت",
        -10.064163208007812
      ],
      [
        "▁ظهور",
        -10.064334869384766
      ],
      [
        "▁قلبی",
        -10.0650053024292
      ],
      [
        "پ",
        -10.065299987792969
      ],
      [
        "▁هایش",
        -10.066690444946287
      ],
      [
        "▁چای",
        -10.067228317260742
      ],
      [
        "▁مجروح",
        -10.068197250366213
      ],
      [
        "▁سران",
        -10.068564414978027
      ],
      [
        "▁واقعا",
        -10.069822311401367
      ],
      [
        "▁سفارت",
        -10.070155143737791
      ],
      [
        "▁زیان",
        -10.0703125
      ],
      [
        "▁استخوان",
        -10.071070671081545
      ],
      [
        "▁قدیم",
        -10.071451187133787
      ],
      [
        "▁علیرضا",
        -10.072558403015137
      ],
      [
        "▁نماند",
        -10.072643280029297
      ],
      [
        "▁سوز",
        -10.072649002075195
      ],
      [
        "▁چنگ",
        -10.07266902923584
      ],
      [
        "▁آور",
        -10.073123931884766
      ],
      [
        "شدند",
        -10.074963569641112
      ],
      [
        "▁پذیر",
        -10.075159072875977
      ],
      [
        "▁مصلحت",
        -10.075282096862791
      ],
      [
        "▁ممنوع",
        -10.075399398803713
      ],
      [
        "▁سده",
        -10.075629234313965
      ],
      [
        "▁افزوده",
        -10.076255798339844
      ],
      [
        "▁آستانه",
        -10.07664966583252
      ],
      [
        "▁جدایی",
        -10.07674503326416
      ],
      [
        "▁مسعود",
        -10.076807975769045
      ],
      [
        "▁حافظه",
        -10.07704257965088
      ],
      [
        "▁مواردی",
        -10.077457427978516
      ],
      [
        "▁گفتنی",
        -10.077502250671388
      ],
      [
        "▁قطعنامه",
        -10.07832145690918
      ],
      [
        "▁بدی",
        -10.078346252441406
      ],
      [
        "▁باستان",
        -10.078347206115724
      ],
      [
        "▁حاج",
        -10.07873821258545
      ],
      [
        "▁دانشجو",
        -10.078776359558104
      ],
      [
        "▁پارلمان",
        -10.07880401611328
      ],
      [
        "زی",
        -10.079632759094238
      ],
      [
        "▁معتقدند",
        -10.07999324798584
      ],
      [
        "▁تحولات",
        -10.08009910583496
      ],
      [
        "کردم",
        -10.080357551574709
      ],
      [
        "▁قند",
        -10.080766677856444
      ],
      [
        "▁اگه",
        -10.082006454467772
      ],
      [
        "▁زودی",
        -10.082411766052246
      ],
      [
        "▁زار",
        -10.084227561950684
      ],
      [
        "▁خراب",
        -10.086390495300291
      ],
      [
        "▁داعش",
        -10.087298393249512
      ],
      [
        "گرفت",
        -10.088408470153809
      ],
      [
        "▁جنگی",
        -10.088577270507812
      ],
      [
        "▁اتومبیل",
        -10.089190483093262
      ],
      [
        "▁انتهای",
        -10.089625358581545
      ],
      [
        "▁سان",
        -10.089842796325684
      ],
      [
        "▁زهرا",
        -10.089922904968262
      ],
      [
        "▁پیشگیری",
        -10.09102725982666
      ],
      [
        "▁رب",
        -10.091571807861328
      ],
      [
        "▁دود",
        -10.091682434082031
      ],
      [
        "▁شهرت",
        -10.092546463012695
      ],
      [
        "▁شغلی",
        -10.092577934265137
      ],
      [
        "▁بطور",
        -10.093708038330078
      ],
      [
        "▁ابو",
        -10.095160484313965
      ],
      [
        "▁مارس",
        -10.096177101135254
      ],
      [
        "▁گور",
        -10.096427917480469
      ],
      [
        "▁سراسری",
        -10.096599578857422
      ],
      [
        "▁مقطع",
        -10.096927642822266
      ],
      [
        "▁جبران",
        -10.097054481506348
      ],
      [
        "▁اسیر",
        -10.097260475158691
      ],
      [
        "▁گوشی",
        -10.097618103027344
      ],
      [
        "▁رفسنجانی",
        -10.09775161743164
      ],
      [
        "▁رمان",
        -10.09817600250244
      ],
      [
        "▁نظم",
        -10.098422050476074
      ],
      [
        "▁پیکر",
        -10.098435401916504
      ],
      [
        "▁شریف",
        -10.098822593688965
      ],
      [
        "▁صف",
        -10.09889793395996
      ],
      [
        "▁پاس",
        -10.098933219909668
      ],
      [
        "▁عن",
        -10.099032402038574
      ],
      [
        "▁چگونگی",
        -10.09904956817627
      ],
      [
        "▁نشریه",
        -10.09938907623291
      ],
      [
        "▁سفیر",
        -10.099682807922363
      ],
      [
        "▁سرپرست",
        -10.099881172180176
      ],
      [
        "▁مطمئن",
        -10.100217819213867
      ],
      [
        "▁رایانه",
        -10.1002836227417
      ],
      [
        "▁صدام",
        -10.100550651550291
      ],
      [
        "▁خواننده",
        -10.100668907165527
      ],
      [
        "▁وب",
        -10.100714683532717
      ],
      [
        "▁کریمی",
        -10.100824356079102
      ],
      [
        "▁مصوبه",
        -10.102540969848633
      ],
      [
        "▁ماجرا",
        -10.10290813446045
      ],
      [
        "▁تصویری",
        -10.103009223937988
      ],
      [
        "▁العاده",
        -10.10330581665039
      ],
      [
        "▁نوار",
        -10.104567527770996
      ],
      [
        "▁تمبرهای",
        -10.104628562927246
      ],
      [
        "▁خواهان",
        -10.105249404907228
      ],
      [
        "▁حریف",
        -10.106439590454102
      ],
      [
        "▁فرق",
        -10.107061386108398
      ],
      [
        "▁انگیز",
        -10.10719394683838
      ],
      [
        "▁کانال",
        -10.107304573059082
      ],
      [
        "▁تلقی",
        -10.10863971710205
      ],
      [
        "کن",
        -10.109095573425291
      ],
      [
        "▁نوجوانان",
        -10.109410285949709
      ],
      [
        "یس",
        -10.110132217407228
      ],
      [
        "▁مسکو",
        -10.110763549804688
      ],
      [
        "▁جانب",
        -10.110814094543455
      ],
      [
        "▁کیست",
        -10.110920906066896
      ],
      [
        "▁فضل",
        -10.111111640930176
      ],
      [
        "▁عقیده",
        -10.111430168151855
      ],
      [
        "▁کور",
        -10.111920356750488
      ],
      [
        "▁بستر",
        -10.112062454223633
      ],
      [
        "▁مدارک",
        -10.112260818481444
      ],
      [
        "▁فیلمی",
        -10.113335609436035
      ],
      [
        "▁هوس",
        -10.11412239074707
      ],
      [
        "▁عناصر",
        -10.114907264709473
      ],
      [
        "▁لایه",
        -10.115392684936523
      ],
      [
        "▁گوید",
        -10.115678787231444
      ],
      [
        "▁فراز",
        -10.115854263305664
      ],
      [
        "▁شهرها",
        -10.116360664367676
      ],
      [
        "▁غافل",
        -10.11656665802002
      ],
      [
        "▁اتحاد",
        -10.117176055908203
      ],
      [
        "▁منطقی",
        -10.118159294128418
      ],
      [
        "خواهیم",
        -10.120124816894531
      ],
      [
        "▁رقیب",
        -10.120702743530272
      ],
      [
        "▁والیبال",
        -10.120841026306152
      ],
      [
        "▁سردار",
        -10.120936393737791
      ],
      [
        "▁ذره",
        -10.121034622192385
      ],
      [
        "▁میرزا",
        -10.121740341186523
      ],
      [
        "▁منو",
        -10.122471809387209
      ],
      [
        "▁وزارتخانه",
        -10.1234712600708
      ],
      [
        "▁لوله",
        -10.124032974243164
      ],
      [
        "اف",
        -10.124186515808104
      ],
      [
        "▁گیلان",
        -10.12429428100586
      ],
      [
        "▁جلسات",
        -10.125102996826172
      ],
      [
        "▁نمک",
        -10.12576961517334
      ],
      [
        "زنند",
        -10.126343727111816
      ],
      [
        "▁تکیه",
        -10.127359390258787
      ],
      [
        "▁زخمی",
        -10.127702713012695
      ],
      [
        "▁ثمر",
        -10.127992630004885
      ],
      [
        "▁قبیل",
        -10.12799835205078
      ],
      [
        "▁ناب",
        -10.128061294555664
      ],
      [
        "▁بیاید",
        -10.128228187561035
      ],
      [
        "▁حاکی",
        -10.128754615783691
      ],
      [
        "▁خودداری",
        -10.129956245422363
      ],
      [
        "▁عضویت",
        -10.13054084777832
      ],
      [
        "▁نکنید",
        -10.13115406036377
      ],
      [
        "▁معلم",
        -10.131641387939451
      ],
      [
        "▁قزوین",
        -10.133552551269531
      ],
      [
        "▁اخذ",
        -10.134389877319336
      ],
      [
        "▁محیطی",
        -10.134549140930176
      ],
      [
        "▁چشمان",
        -10.135045051574709
      ],
      [
        "▁اپلیکیشن",
        -10.13524341583252
      ],
      [
        "▁برقراری",
        -10.135295867919922
      ],
      [
        "▁ضرب",
        -10.13532543182373
      ],
      [
        "ُّ",
        -10.135896682739258
      ],
      [
        "▁تغذیه",
        -10.135963439941406
      ],
      [
        "▁ماموران",
        -10.13626194000244
      ],
      [
        "▁نمایید",
        -10.136451721191406
      ],
      [
        "▁جذاب",
        -10.136578559875488
      ],
      [
        "▁افسانه",
        -10.136757850646973
      ],
      [
        "▁والدین",
        -10.136846542358398
      ],
      [
        "▁بده",
        -10.137527465820312
      ],
      [
        "▁مشکلی",
        -10.13776969909668
      ],
      [
        "▁کروبی",
        -10.137864112854004
      ],
      [
        "جان",
        -10.137953758239746
      ],
      [
        "▁گرایش",
        -10.138310432434082
      ],
      [
        "▁وطن",
        -10.138358116149902
      ],
      [
        "▁آغوش",
        -10.13903522491455
      ],
      [
        "▁فرض",
        -10.139825820922852
      ],
      [
        "بود",
        -10.139960289001465
      ],
      [
        "▁دانشگاهی",
        -10.139974594116213
      ],
      [
        "▁گوی",
        -10.140029907226562
      ],
      [
        "▁لی",
        -10.140217781066896
      ],
      [
        "▁قاچاق",
        -10.140973091125488
      ],
      [
        "گیر",
        -10.143426895141602
      ],
      [
        "▁راهنمایی",
        -10.144157409667969
      ],
      [
        "▁برخلاف",
        -10.144391059875488
      ],
      [
        "▁تنش",
        -10.14625644683838
      ],
      [
        "▁تمایل",
        -10.146599769592283
      ],
      [
        "▁ژانویه",
        -10.147257804870604
      ],
      [
        "▁دوری",
        -10.147371292114258
      ],
      [
        "▁اوباما",
        -10.147464752197266
      ],
      [
        "▁زیارت",
        -10.147730827331545
      ],
      [
        "▁هواداران",
        -10.147738456726074
      ],
      [
        "▁ادب",
        -10.148103713989258
      ],
      [
        "▁صفت",
        -10.14847469329834
      ],
      [
        "تن",
        -10.1488676071167
      ],
      [
        "▁بازیگران",
        -10.148964881896973
      ],
      [
        "▁محدوده",
        -10.149059295654297
      ],
      [
        "▁مهاجرت",
        -10.149102210998535
      ],
      [
        "▁عطر",
        -10.1499662399292
      ],
      [
        "▁نوبت",
        -10.150185585021973
      ],
      [
        "▁شاخ",
        -10.150198936462402
      ],
      [
        "▁فن",
        -10.150395393371582
      ],
      [
        "▁پیروز",
        -10.15040111541748
      ],
      [
        "▁خانگی",
        -10.15137004852295
      ],
      [
        "▁آزار",
        -10.15147304534912
      ],
      [
        "▁نتوان",
        -10.1527738571167
      ],
      [
        "▁مقصد",
        -10.152901649475098
      ],
      [
        "▁لینک",
        -10.153318405151367
      ],
      [
        "▁تقدیم",
        -10.153485298156738
      ],
      [
        "بان",
        -10.153971672058104
      ],
      [
        "▁مستند",
        -10.154008865356444
      ],
      [
        "▁اسرار",
        -10.155181884765623
      ],
      [
        "وف",
        -10.15600872039795
      ],
      [
        "▁انگار",
        -10.156405448913574
      ],
      [
        "▁معنا",
        -10.157724380493164
      ],
      [
        "بایست",
        -10.157979011535645
      ],
      [
        "او",
        -10.15854549407959
      ],
      [
        "▁رانندگی",
        -10.158575057983398
      ],
      [
        "▁ورودی",
        -10.158773422241213
      ],
      [
        "گویم",
        -10.159701347351074
      ],
      [
        "▁شرم",
        -10.160603523254396
      ],
      [
        "▁ترافیک",
        -10.161338806152344
      ],
      [
        "▁آفریقا",
        -10.161477088928224
      ],
      [
        "▁حافظ",
        -10.161593437194824
      ],
      [
        "▁گردش",
        -10.161760330200195
      ],
      [
        "▁زمانه",
        -10.16176700592041
      ],
      [
        "▁شکار",
        -10.162993431091309
      ],
      [
        "▁چوب",
        -10.163086891174316
      ],
      [
        "▁خطرناک",
        -10.163186073303224
      ],
      [
        "▁سپرده",
        -10.163331031799316
      ],
      [
        "▁فایل",
        -10.16339111328125
      ],
      [
        "▁تسلیم",
        -10.164426803588867
      ],
      [
        "▁توانسته",
        -10.165452003479004
      ],
      [
        "سون",
        -10.16580295562744
      ],
      [
        "▁احتمالی",
        -10.166086196899414
      ],
      [
        "آن",
        -10.166146278381348
      ],
      [
        "▁تردید",
        -10.166522979736328
      ],
      [
        "▁ثبات",
        -10.167020797729492
      ],
      [
        "▁کاروان",
        -10.167102813720703
      ],
      [
        "▁صلاحیت",
        -10.167106628417969
      ],
      [
        "▁فرم",
        -10.16844081878662
      ],
      [
        "▁گرفتار",
        -10.16881275177002
      ],
      [
        "▁مالیات",
        -10.168837547302246
      ],
      [
        "▁دستیابی",
        -10.169339179992676
      ],
      [
        "وت",
        -10.16967487335205
      ],
      [
        "▁کارشناس",
        -10.170166969299316
      ],
      [
        "▁غبار",
        -10.17042064666748
      ],
      [
        "▁دانسته",
        -10.17065143585205
      ],
      [
        "▁تمدن",
        -10.170705795288086
      ],
      [
        "▁عموم",
        -10.172218322753906
      ],
      [
        "▁تروریسم",
        -10.172654151916504
      ],
      [
        "ئ",
        -10.172724723815918
      ],
      [
        "▁نمایندگی",
        -10.173379898071287
      ],
      [
        "▁اعدام",
        -10.173569679260254
      ],
      [
        "▁بنی",
        -10.173842430114746
      ],
      [
        "▁مایه",
        -10.1744384765625
      ],
      [
        "سن",
        -10.174464225769045
      ],
      [
        "▁دیو",
        -10.175285339355469
      ],
      [
        "▁مخالفان",
        -10.175804138183594
      ],
      [
        "ته",
        -10.176762580871582
      ],
      [
        "▁ترور",
        -10.177974700927734
      ],
      [
        "▁کلید",
        -10.178006172180176
      ],
      [
        "▁میشه",
        -10.178094863891602
      ],
      [
        "▁مازندران",
        -10.178949356079102
      ],
      [
        "▁همدان",
        -10.179640769958496
      ],
      [
        "▁جراحی",
        -10.17971420288086
      ],
      [
        "▁زور",
        -10.17978858947754
      ],
      [
        "▁شگفت",
        -10.180088996887209
      ],
      [
        "▁مدرک",
        -10.181039810180664
      ],
      [
        "▁مجاز",
        -10.181076049804688
      ],
      [
        "توانست",
        -10.181211471557615
      ],
      [
        "▁واگذار",
        -10.181821823120115
      ],
      [
        "▁خورشیدی",
        -10.182262420654297
      ],
      [
        "▁داشتیم",
        -10.182414054870604
      ],
      [
        "▁اکثریت",
        -10.182513236999512
      ],
      [
        "▁برآورد",
        -10.183391571044922
      ],
      [
        "▁رغم",
        -10.183770179748535
      ],
      [
        "▁مستقر",
        -10.18409824371338
      ],
      [
        "▁تولیدی",
        -10.184359550476074
      ],
      [
        "▁کویت",
        -10.184852600097656
      ],
      [
        "▁اتخاذ",
        -10.185039520263672
      ],
      [
        "▁حاوی",
        -10.185612678527832
      ],
      [
        "▁میزبان",
        -10.186244010925291
      ],
      [
        "▁ظلم",
        -10.18666172027588
      ],
      [
        "▁دشوار",
        -10.186850547790527
      ],
      [
        "▁حمید",
        -10.186922073364258
      ],
      [
        "▁قاجار",
        -10.188071250915527
      ],
      [
        "▁ثروت",
        -10.188261032104492
      ],
      [
        "▁ببرد",
        -10.188281059265137
      ],
      [
        "▁عزت",
        -10.188482284545898
      ],
      [
        "▁ارتباطی",
        -10.188899040222168
      ],
      [
        "▁بدانید",
        -10.189301490783691
      ],
      [
        "▁شایسته",
        -10.189375877380373
      ],
      [
        "▁مبنای",
        -10.190593719482422
      ],
      [
        "▁سنی",
        -10.191817283630373
      ],
      [
        "▁خور",
        -10.19192600250244
      ],
      [
        "▁برعهده",
        -10.192041397094728
      ],
      [
        "▁مجتمع",
        -10.192554473876951
      ],
      [
        "▁اخیرا",
        -10.19297981262207
      ],
      [
        "▁بکار",
        -10.193145751953123
      ],
      [
        "▁حاکمیت",
        -10.193574905395508
      ],
      [
        "وری",
        -10.193665504455566
      ],
      [
        "▁پزشکان",
        -10.19436264038086
      ],
      [
        "▁افتتاح",
        -10.19613265991211
      ],
      [
        "▁تأیید",
        -10.196244239807127
      ],
      [
        "▁انقلابی",
        -10.196392059326172
      ],
      [
        "هایش",
        -10.198026657104492
      ],
      [
        "▁ماهه",
        -10.198444366455078
      ],
      [
        "▁مرحوم",
        -10.198983192443848
      ],
      [
        "دادند",
        -10.199222564697266
      ],
      [
        "▁کابینه",
        -10.199267387390137
      ],
      [
        "▁عاشقان",
        -10.199920654296877
      ],
      [
        "▁لعل",
        -10.200080871582031
      ],
      [
        "▁خطا",
        -10.200362205505373
      ],
      [
        "▁شمشیر",
        -10.200520515441896
      ],
      [
        "▁کردستان",
        -10.200557708740234
      ],
      [
        "▁مجنون",
        -10.201181411743164
      ],
      [
        "▁محمدی",
        -10.201753616333008
      ],
      [
        "▁توقف",
        -10.202065467834473
      ],
      [
        "▁آدمی",
        -10.20237159729004
      ],
      [
        "▁محرم",
        -10.20241355895996
      ],
      [
        "▁دستگیری",
        -10.202789306640623
      ],
      [
        "▁چنانچه",
        -10.20294189453125
      ],
      [
        "▁لیک",
        -10.203500747680664
      ],
      [
        "▁تحول",
        -10.204339027404783
      ],
      [
        "▁خلاصه",
        -10.204455375671388
      ],
      [
        "▁یاران",
        -10.205018997192385
      ],
      [
        "▁محققان",
        -10.205718040466309
      ],
      [
        "▁پیوست",
        -10.205733299255373
      ],
      [
        "▁اقامت",
        -10.206110954284668
      ],
      [
        "▁معاصر",
        -10.20624828338623
      ],
      [
        "▁خواجه",
        -10.206469535827637
      ],
      [
        "▁یو",
        -10.206560134887695
      ],
      [
        "▁باری",
        -10.206561088562012
      ],
      [
        "▁آرزو",
        -10.20660400390625
      ],
      [
        "▁بدنی",
        -10.206920623779297
      ],
      [
        "خواست",
        -10.20712947845459
      ],
      [
        "▁برطرف",
        -10.2072172164917
      ],
      [
        "پی",
        -10.20754337310791
      ],
      [
        "▁همراهی",
        -10.20787525177002
      ],
      [
        "▁زنگ",
        -10.208430290222168
      ],
      [
        "▁شبانه",
        -10.208700180053713
      ],
      [
        "▁جناح",
        -10.210229873657228
      ],
      [
        "▁بیگانه",
        -10.212051391601562
      ],
      [
        "▁جامه",
        -10.21372413635254
      ],
      [
        "▁شعبه",
        -10.214654922485352
      ],
      [
        "▁چهل",
        -10.2146635055542
      ],
      [
        "▁پدرش",
        -10.214801788330078
      ],
      [
        "▁اهالی",
        -10.214802742004396
      ],
      [
        "▁پری",
        -10.214909553527832
      ],
      [
        "▁راضی",
        -10.214930534362791
      ],
      [
        "▁لزوم",
        -10.215425491333008
      ],
      [
        "وه",
        -10.215569496154783
      ],
      [
        "▁شانه",
        -10.215572357177734
      ],
      [
        "▁فقیه",
        -10.215755462646484
      ],
      [
        "▁هنرمند",
        -10.215807914733888
      ],
      [
        "▁بازرسی",
        -10.21612548828125
      ],
      [
        "▁متخصص",
        -10.216550827026367
      ],
      [
        "▁قهوه",
        -10.21657943725586
      ],
      [
        "▁ریز",
        -10.217005729675291
      ],
      [
        "▁فرایند",
        -10.218496322631836
      ],
      [
        "▁الر",
        -10.21857452392578
      ],
      [
        "▁نوروز",
        -10.218581199645996
      ],
      [
        "▁جوش",
        -10.218609809875488
      ],
      [
        "▁هاست",
        -10.218609809875488
      ],
      [
        "▁دلی",
        -10.219558715820312
      ],
      [
        "▁معنوی",
        -10.220003128051758
      ],
      [
        "▁بدل",
        -10.22026824951172
      ],
      [
        "▁سیگار",
        -10.222063064575195
      ],
      [
        "▁داره",
        -10.22299098968506
      ],
      [
        "مین",
        -10.22343921661377
      ],
      [
        "▁آرزوی",
        -10.2237548828125
      ],
      [
        "▁صدها",
        -10.224014282226562
      ],
      [
        "▁بودی",
        -10.224042892456056
      ],
      [
        "▁خر",
        -10.224248886108398
      ],
      [
        "▁درستی",
        -10.224328994750977
      ],
      [
        "▁شدیم",
        -10.224888801574709
      ],
      [
        "▁قوم",
        -10.225407600402832
      ],
      [
        "▁بسیج",
        -10.225615501403809
      ],
      [
        "ظ",
        -10.22619342803955
      ],
      [
        "▁کشیدن",
        -10.226574897766112
      ],
      [
        "▁پرنده",
        -10.226814270019531
      ],
      [
        "▁افزار",
        -10.22742748260498
      ],
      [
        "▁زهر",
        -10.227744102478027
      ],
      [
        "▁واسه",
        -10.228114128112791
      ],
      [
        "▁کاغذ",
        -10.228185653686523
      ],
      [
        "▁زلزله",
        -10.228708267211914
      ],
      [
        "▁کمان",
        -10.22899341583252
      ],
      [
        "▁مسئولین",
        -10.229037284851074
      ],
      [
        "▁سوء",
        -10.22905445098877
      ],
      [
        "▁فجر",
        -10.229164123535156
      ],
      [
        "▁ارزان",
        -10.229288101196287
      ],
      [
        "▁تشنه",
        -10.22973918914795
      ],
      [
        "▁محوطه",
        -10.230297088623049
      ],
      [
        "▁بالغ",
        -10.231163024902344
      ],
      [
        "مند",
        -10.231472969055176
      ],
      [
        "▁تماشای",
        -10.23169231414795
      ],
      [
        "▁زندانی",
        -10.231707572937012
      ],
      [
        "▁مواضع",
        -10.23176383972168
      ],
      [
        "اق",
        -10.23231029510498
      ],
      [
        "▁مسافران",
        -10.233216285705566
      ],
      [
        "▁خامنه",
        -10.233233451843262
      ],
      [
        "خان",
        -10.235355377197266
      ],
      [
        "▁کامپیوتر",
        -10.23580837249756
      ],
      [
        "▁کلان",
        -10.236005783081056
      ],
      [
        "▁ایرنا",
        -10.236291885375977
      ],
      [
        "▁پرتاب",
        -10.236403465270996
      ],
      [
        "▁چندی",
        -10.23691177368164
      ],
      [
        "▁نظری",
        -10.23691749572754
      ],
      [
        "▁سلسله",
        -10.238126754760742
      ],
      [
        "▁تقاضا",
        -10.23898696899414
      ],
      [
        "برداری",
        -10.239033699035645
      ],
      [
        "▁طرفداران",
        -10.23969841003418
      ],
      [
        "▁دلت",
        -10.23979377746582
      ],
      [
        "کان",
        -10.239828109741213
      ],
      [
        "اری",
        -10.24033260345459
      ],
      [
        "پردازد",
        -10.240467071533203
      ],
      [
        "▁گاو",
        -10.240608215332031
      ],
      [
        "▁اسرائیلی",
        -10.241185188293455
      ],
      [
        "▁پیشنهادی",
        -10.241284370422363
      ],
      [
        "▁سؤال",
        -10.241336822509766
      ],
      [
        "▁وبلاگ",
        -10.24156665802002
      ],
      [
        "▁بانوان",
        -10.24172592163086
      ],
      [
        "▁عام",
        -10.242158889770508
      ],
      [
        "▁برنج",
        -10.242443084716797
      ],
      [
        "دهیم",
        -10.242525100708008
      ],
      [
        "▁وزیران",
        -10.242947578430176
      ],
      [
        "▁قطعا",
        -10.243239402770996
      ],
      [
        "▁تعطیل",
        -10.24341106414795
      ],
      [
        "▁روم",
        -10.24424934387207
      ],
      [
        "▁سوره",
        -10.244348526000977
      ],
      [
        "▁اندک",
        -10.244881629943848
      ],
      [
        "▁ماندن",
        -10.245246887207031
      ],
      [
        "▁ادعای",
        -10.245503425598145
      ],
      [
        "وب",
        -10.2456693649292
      ],
      [
        "▁شیطان",
        -10.246639251708984
      ],
      [
        "▁قطعی",
        -10.246665000915527
      ],
      [
        "▁خودتان",
        -10.24680519104004
      ],
      [
        "▁خوان",
        -10.24709415435791
      ],
      [
        "▁معتبر",
        -10.24732780456543
      ],
      [
        "▁بم",
        -10.247442245483398
      ],
      [
        "▁مایکروسافت",
        -10.247989654541016
      ],
      [
        "▁گردون",
        -10.24809741973877
      ],
      [
        "▁پایدار",
        -10.248473167419434
      ],
      [
        "▁دسترس",
        -10.248568534851074
      ],
      [
        "▁رفتم",
        -10.248632431030272
      ],
      [
        "▁غلط",
        -10.24868392944336
      ],
      [
        "▁راستا",
        -10.248687744140623
      ],
      [
        "▁مهارت",
        -10.24871063232422
      ],
      [
        "▁نیروگاه",
        -10.249550819396973
      ],
      [
        "▁فروشگاه",
        -10.249994277954102
      ],
      [
        "▁نامیده",
        -10.250699996948242
      ],
      [
        "▁زند",
        -10.25108528137207
      ],
      [
        "▁پژوهشی",
        -10.251462936401367
      ],
      [
        "▁اکتبر",
        -10.251465797424316
      ],
      [
        "▁نگار",
        -10.25147819519043
      ],
      [
        "▁محقق",
        -10.252313613891602
      ],
      [
        "▁خرم",
        -10.25390338897705
      ],
      [
        "▁جزئیات",
        -10.255637168884276
      ],
      [
        "▁شفاف",
        -10.25629997253418
      ],
      [
        "▁آنقدر",
        -10.256585121154783
      ],
      [
        "▁متعدد",
        -10.256683349609377
      ],
      [
        "▁نوامبر",
        -10.256901741027832
      ],
      [
        "▁اختلال",
        -10.257404327392578
      ],
      [
        "▁مخاطب",
        -10.257769584655762
      ],
      [
        "هر",
        -10.257996559143066
      ],
      [
        "▁ژوئن",
        -10.258646965026855
      ],
      [
        "▁ارایه",
        -10.259016036987305
      ],
      [
        "▁جغرافیایی",
        -10.259106636047363
      ],
      [
        "▁طلاق",
        -10.259288787841797
      ],
      [
        "▁یخ",
        -10.259910583496094
      ],
      [
        "▁مجید",
        -10.260422706604004
      ],
      [
        "▁مراتب",
        -10.260993957519531
      ],
      [
        "▁ظهر",
        -10.263933181762695
      ],
      [
        "▁امارات",
        -10.26430892944336
      ],
      [
        "▁هواپیمای",
        -10.265557289123535
      ],
      [
        "▁عوارض",
        -10.265639305114746
      ],
      [
        "رسید",
        -10.266566276550291
      ],
      [
        "▁فرهاد",
        -10.266776084899902
      ],
      [
        "کاری",
        -10.26678466796875
      ],
      [
        "▁مدنی",
        -10.267607688903809
      ],
      [
        "▁متعددی",
        -10.267754554748535
      ],
      [
        "دانیم",
        -10.268755912780762
      ],
      [
        "▁ناصر",
        -10.268930435180664
      ],
      [
        "▁همسرش",
        -10.269064903259276
      ],
      [
        "▁حکمت",
        -10.269368171691896
      ],
      [
        "▁سرم",
        -10.269882202148438
      ],
      [
        "وار",
        -10.27027988433838
      ],
      [
        "▁مراجع",
        -10.27068328857422
      ],
      [
        "کرده",
        -10.27080249786377
      ],
      [
        "▁تاریک",
        -10.270920753479004
      ],
      [
        "روز",
        -10.270973205566406
      ],
      [
        "▁روحی",
        -10.27125072479248
      ],
      [
        "▁خاطرات",
        -10.27147388458252
      ],
      [
        "▁درختان",
        -10.27150535583496
      ],
      [
        "▁توست",
        -10.272117614746094
      ],
      [
        "▁عیسی",
        -10.272443771362305
      ],
      [
        "▁همسایه",
        -10.272653579711914
      ],
      [
        "▁نهاده",
        -10.27280330657959
      ],
      [
        "▁گویا",
        -10.27284336090088
      ],
      [
        "▁محاکمه",
        -10.27291488647461
      ],
      [
        "▁دان",
        -10.272967338562012
      ],
      [
        "وم",
        -10.273788452148438
      ],
      [
        "▁دسامبر",
        -10.27413272857666
      ],
      [
        "دن",
        -10.274579048156738
      ],
      [
        "▁تحقیقاتی",
        -10.274638175964355
      ],
      [
        "▁چطور",
        -10.274909973144531
      ],
      [
        "▁مجهز",
        -10.275672912597656
      ],
      [
        "▁علنی",
        -10.275849342346191
      ],
      [
        "▁رونق",
        -10.27634048461914
      ],
      [
        "▁محاسبه",
        -10.2776517868042
      ],
      [
        "▁تور",
        -10.27773094177246
      ],
      [
        "▁مهمان",
        -10.278279304504396
      ],
      [
        "▁نوشتن",
        -10.278579711914062
      ],
      [
        "▁چربی",
        -10.279022216796877
      ],
      [
        "▁اطلاعیه",
        -10.279132843017578
      ],
      [
        "▁زیبای",
        -10.279306411743164
      ],
      [
        "▁دارایی",
        -10.27962875366211
      ],
      [
        "▁کاربردی",
        -10.27969455718994
      ],
      [
        "بینم",
        -10.28005313873291
      ],
      [
        "خانوار",
        -10.280500411987305
      ],
      [
        "▁ابتدایی",
        -10.280779838562012
      ],
      [
        "▁دمای",
        -10.28123950958252
      ],
      [
        "▁اصطلاح",
        -10.28144645690918
      ],
      [
        "▁قربانی",
        -10.282060623168944
      ],
      [
        "▁چ",
        -10.282825469970703
      ],
      [
        "▁نسیم",
        -10.283143043518066
      ],
      [
        "▁دریاچه",
        -10.283210754394531
      ],
      [
        "▁نشین",
        -10.283300399780272
      ],
      [
        "▁تعلق",
        -10.283365249633787
      ],
      [
        "▁مرور",
        -10.28339385986328
      ],
      [
        "▁فرستاده",
        -10.283394813537598
      ],
      [
        "▁همگی",
        -10.283470153808594
      ],
      [
        "▁آمریکائی",
        -10.283981323242188
      ],
      [
        "▁گذار",
        -10.284404754638672
      ],
      [
        "▁مردمان",
        -10.28467845916748
      ],
      [
        "▁تشریح",
        -10.284713745117188
      ],
      [
        "▁مستی",
        -10.284835815429688
      ],
      [
        "▁بوجود",
        -10.285944938659668
      ],
      [
        "▁دادم",
        -10.286252975463867
      ],
      [
        "▁برگشت",
        -10.287006378173828
      ],
      [
        "▁دفاعی",
        -10.28703498840332
      ],
      [
        "▁قیامت",
        -10.287347793579102
      ],
      [
        "▁فوت",
        -10.28736686706543
      ],
      [
        "▁بندر",
        -10.287753105163574
      ],
      [
        "▁صرفا",
        -10.28791046142578
      ],
      [
        "▁آنرا",
        -10.288179397583008
      ],
      [
        "▁پاپ",
        -10.288702011108398
      ],
      [
        "▁تظاهرات",
        -10.289142608642578
      ],
      [
        "▁دادگستری",
        -10.290106773376465
      ],
      [
        "▁قضائیه",
        -10.290210723876951
      ],
      [
        "▁پاییز",
        -10.29051399230957
      ],
      [
        "▁رم",
        -10.291021347045898
      ],
      [
        "▁آمدند",
        -10.292338371276855
      ],
      [
        "▁مور",
        -10.292686462402344
      ],
      [
        "ماه",
        -10.293088912963867
      ],
      [
        "▁حیوانات",
        -10.29318618774414
      ],
      [
        "▁عاشقی",
        -10.294453620910645
      ],
      [
        "▁مراد",
        -10.294620513916016
      ],
      [
        "▁یی",
        -10.295634269714355
      ],
      [
        "▁ماهواره",
        -10.295690536499023
      ],
      [
        "▁سالهای",
        -10.295778274536133
      ],
      [
        "▁عدل",
        -10.296692848205566
      ],
      [
        "▁گندم",
        -10.296693801879885
      ],
      [
        "ساز",
        -10.296701431274414
      ],
      [
        "▁یورو",
        -10.29757308959961
      ],
      [
        "▁گردان",
        -10.298011779785156
      ],
      [
        "▁نیازی",
        -10.299016952514648
      ],
      [
        "▁بعدها",
        -10.299087524414062
      ],
      [
        "▁شورشیان",
        -10.299216270446776
      ],
      [
        "▁رنگی",
        -10.299437522888184
      ],
      [
        "▁تقاضای",
        -10.29965877532959
      ],
      [
        "▁ویندوز",
        -10.299667358398438
      ],
      [
        "▁مهربان",
        -10.300554275512695
      ],
      [
        "▁ویروس",
        -10.300642013549805
      ],
      [
        "▁عمق",
        -10.30069351196289
      ],
      [
        "▁جانم",
        -10.300914764404297
      ],
      [
        "▁لاریجانی",
        -10.301222801208496
      ],
      [
        "▁بومی",
        -10.301283836364746
      ],
      [
        "▁اهواز",
        -10.301589012145996
      ],
      [
        "ود",
        -10.30179500579834
      ],
      [
        "▁برگزیده",
        -10.302008628845217
      ],
      [
        "▁سرقت",
        -10.302159309387209
      ],
      [
        "▁جناب",
        -10.302165031433104
      ],
      [
        "▁اعتیاد",
        -10.302240371704102
      ],
      [
        "▁ادبی",
        -10.303038597106934
[...]
